'<pad>'
'<EOS>'
', _'
'the_'
'. _'
'to_'
'of_'
'and_'
'that_'
''_'
'a_'
'in_'
's_'
'I_'
'.\10;\10;_'
'is_'
'we_'
': _'
'you_'
'for_'
'it_'
'have_'
'’_'
'on_'
'._'
'_'
'-_'
'this_'
'And_'
'are_'
'be_'
't_'
'not_'
'with_'
'they_'
'as_'
'was_'
' -- _'
'our_'
'about_'
'what_'
're_'
'people_'
'at_'
'he_'
'The_'
'has_'
'going_'
'who_'
'do_'
'will_'
'We_'
'by_'
'.\10;\10;\10;\10;_'
'think_'
'or_'
'from_'
'can_'
' (_'
've_'
'an_'
'0_'
'all_'
'said_'
'would_'
'more_'
'there_'
'but_'
'know_'
'\10;\10;_'
'But_'
'1_'
'been_'
'their_'
'if_'
'It_'
'out_'
'just_'
'up_'
'because_'
'one_'
',_'
'get_'
'so_'
'his_'
'when_'
'us_'
'That_'
'them_'
'don_'
'want_'
'your_'
'now_'
'?\10;\10;_'
'were_'
'had_'
'right_'
'some_'
'my_'
'make_'
'So_'
'm_'
'You_'
'time_'
'very_'
'like_'
'me_'
'Obama_'
'which_'
'Tj_'
'than_'
'd_'
'country_'
'Tw_'
'health_'
' $_'
'here_'
'? _'
'say_'
'Senator_'
'ed_'
'over_'
'those_'
'years_'
'President_'
'ing_'
'2_'
'care_'
'these_'
'president_'
'American_'
'no_'
'other_'
'tax_'
'government_'
'go_'
'got_'
'back_'
'T_'
'Well_'
'/_'
'3_'
'should_'
'how_'
'also_'
'way_'
'she_'
'America_'
'THE_'
'any_'
'need_'
'5_'
'where_'
'Clinton_'
'4_'
'United_'
'They_'
'S_'
'into_'
'This_'
'; _'
'He_'
'take_'
'Trump_'
'A_'
') _'
'her_'
'year_'
')\10;\10;_'
'States_'
'work_'
'percent_'
'two_'
':_'
'* _'
'could_'
'000_'
'first_'
' )_'
'll_'
'let_'
'new_'
'lot_'
'. (_'
'good_'
'then_'
'plan_'
' “_'
'In_'
'believe_'
'much_'
'6_'
'did_'
'down_'
'things_'
'made_'
'see_'
'e_'
'8_'
'question_'
'look_'
'only_'
'Americans_'
'last_'
'What_'
'many_'
'jobs_'
'after_'
'y_'
'U_'
'money_'
'him_'
'put_'
'Now_'
'before_'
'even_'
'most_'
' "_'
'state_'
'campaign_'
'If_'
'7_'
'come_'
'insurance_'
'9_'
'sure_'
'well_'
'economy_'
'world_'
'something_'
'McCain_'
'fact_'
'thing_'
'why_'
'able_'
'every_'
'being_'
'House_'
'through_'
'important_'
'its_'
'spending_'
'may_'
'OF_'
'point_'
'million_'
'.\10;\10;(_'
'same_'
'OBAMA_'
'against_'
'support_'
'Republican_'
'really_'
'help_'
'Congress_'
'done_'
'doing_'
'under_'
'billion_'
'part_'
'own_'
'There_'
'issue_'
'give_'
' — _'
'didn_'
'long_'
'Senate_'
'bill_'
'Republicans_'
'does_'
'Mr_'
'both_'
'Medicare_'
'New_'
'law_'
'Washington_'
'still_'
'Applause_'
'public_'
'pay_'
'AMANPOUR_'
'actually_'
'TAPPER_'
'saying_'
'next_'
'mean_'
'Iraq_'
'D_'
' - _'
'administration_'
'again_'
'better_'
'military_'
'taxes_'
'says_'
'working_'
'cut_'
'war_'
'today_'
'Let_'
'day_'
'talk_'
'” _'
'talking_'
'making_'
' -_'
'job_'
',” _'
'change_'
'keep_'
'security_'
'Thank_'
'system_'
'policy_'
'off_'
'?\10;\10;\10;\10;_'
'great_'
'es_'
'never_'
'10_'
'Romney_'
'...\10;\10;_'
'big_'
'Democrats_'
'end_'
'John_'
'getting_'
'tell_'
'use_'
'number_'
'doesn_'
'companies_'
'around_'
'problem_'
'too_'
'oil_'
'political_'
'kind_'
'federal_'
'.) _'
'business_'
'another_'
'program_'
'such_'
'No_'
'place_'
'cuts_'
'CLINTON_'
'whether_'
'(_'
'children_'
'budget_'
'without_'
' – _'
'.”\10;\10;_'
'national_'
'Bush_'
'life_'
'," _'
'Department_'
'debate_'
'including_'
'between_'
', "_'
'deal_'
'three_'
'TO_'
'n_'
'ly_'
'ask_'
'BLITZER_'
'together_'
'families_'
'reform_'
'- _'
'since_'
'middle_'
'energy_'
'must_'
'clear_'
'cost_'
'Secretary_'
'When_'
'She_'
'All_'
'APPLAUSE_'
'called_'
'vote_'
'Hillary_'
'nation_'
'across_'
'while_'
'during_'
'As_'
'am_'
'little_'
'home_'
'al_'
'small_'
'election_'
'women_'
'R_'
'future_'
'days_'
'Governor_'
'start_'
'economic_'
'er_'
'best_'
'" _'
'seen_'
'came_'
'party_'
'forward_'
'class_'
'high_'
'State_'
'provide_'
'White_'
'Afghanistan_'
'11_'
'week_'
'r_'
'already_'
'ago_'
'issues_'
'having_'
'education_'
'won_'
'means_'
'continue_'
'bring_'
'less_'
'For_'
'30_'
'Democratic_'
'Act_'
'understand_'
'trying_'
'hard_'
'nuclear_'
'TRUMP_'
'real_'
'used_'
'different_'
'Donald_'
'21_'
'try_'
'businesses_'
'C_'
'family_'
'coming_'
'deficit_'
'TD_'
'), _'
'told_'
'months_'
')\10;\10;\10;\10;_'
'states_'
'IN_'
'costs_'
'four_'
'Iran_'
'term_'
'O_'
'agree_'
'. “_'
'man_'
'former_'
'far_'
'story_'
'private_'
'office_'
'enough_'
'programs_'
'everybody_'
'foreign_'
'always_'
'financial_'
'Russia_'
'CROSSTALK_'
'20_'
'."\10;\10;_'
'15_'
'power_'
'went_'
'information_'
'income_'
'away_'
'VIDEO_'
'25_'
'find_'
'CLIP_'
'taking_'
'create_'
'ng_'
'MR_'
'times_'
'news_'
'run_'
'few_'
'case_'
'heard_'
'anything_'
'move_'
'12_'
'true_'
'growth_'
'folks_'
'rights_'
'reason_'
'old_'
'ever_'
'York_'
'N_'
'How_'
'Because_'
'looking_'
'happen_'
'each_'
'SEN_'
'Do_'
'AND_'
'might_'
'set_'
', “_'
'available_'
'took_'
'least_'
'course_'
'trade_'
'idea_'
'One_'
'crisis_'
'interests_'
'past_'
'nothing_'
'line_'
'workers_'
'process_'
'example_'
'debt_'
'voted_'
'though_'
'respect_'
'person_'
'comes_'
'l_'
'hope_'
'yet_'
'show_'
'record_'
'." _'
'young_'
'running_'
'credit_'
'coverage_'
'left_'
'.\10;\10;\10;\10;(_'
'Yes_'
'order_'
'fight_'
'bad_'
'-)_'
'gun_'
'George_'
'asked_'
'RADDATZ_'
'—_'
'based_'
'worked_'
'until_'
'rate_'
'50_'
'wants_'
'terms_'
'matter_'
'dollars_'
'E_'
'troops_'
'presidential_'
'PRESIDENT_'
'.)\10;\10;_'
'needs_'
'lost_'
'trillion_'
': ... _'
'happened_'
'free_'
'Paul_'
')_'
'call_'
'Security_'
'special_'
'wrong_'
'thank_'
'members_'
'market_'
'history_'
'control_'
'community_'
'Our_'
'News_'
'reduce_'
'National_'
'school_'
'% _'
'everything_'
'On_'
'Is_'
'services_'
'policies_'
'’ _'
'opportunity_'
'Y_'
'decision_'
'.\10;\10;“_'
'whole_'
'stop_'
'politics_'
'countries_'
'position_'
'o_'
'afford_'
'LEHRER_'
'millions_'
'Party_'
'stand_'
'report_'
'interest_'
'answer_'
'China_'
'given_'
'RYAN_'
'22_'
'com_'
'2008_'
'sense_'
'plans_'
'wanted_'
'strong_'
'increase_'
'lives_'
'problems_'
'top_'
'several_'
'kids_'
'current_'
'THAT_'
'.” _'
'win_'
'tough_'
'Thompson_'
'talked_'
'100_'
'isn_'
'h_'
'lower_'
'become_'
'border_'
'tonight_'
'immigration_'
'OK_'
'. "_'
'thought_'
'shall_'
'probably_'
'difference_'
'To_'
'Sen_'
'second_'
'choice_'
'Defense_'
'legislation_'
'side_'
'gone_'
'My_'
'within_'
'simply_'
'serious_'
'open_'
'saw_'
'candidate_'
'Ohio_'
'single_'
'leave_'
'Look_'
'' _'
'Barack_'
' '_'
'weapons_'
'speech_'
'responsibility_'
'defense_'
'makes_'
'goes_'
'taken_'
'month_'
'=_'
'rates_'
'five_'
'Street_'
'g_'
'exactly_'
'attack_'
'END_'
'others_'
'data_'
'close_'
'Bill_'
'funds_'
'chance_'
'name_'
'fiscal_'
'M_'
'paid_'
'leadership_'
'group_'
'further_'
'IS_'
'125_'
'wasn_'
'hear_'
'force_'
'face_'
'local_'
'later_'
'...\10;\10;(_'
'minutes_'
'absolutely_'
'ROMNEY_'
'willing_'
'turn_'
'leaders_'
'fair_'
'cannot_'
'buy_'
'SEC_'
'General_'
'emails_'
'certainly_'
'Why_'
'questions_'
'possible_'
'k_'
'company_'
'major_'
'found_'
'everyone_'
'benefits_'
'?_'
'voters_'
'ts_'
'situation_'
'section_'
'officials_'
'college_'
'words_'
'statement_'
'elected_'
'c_'
'six_'
'service_'
'haven_'
'else_'
'Social_'
'pretty_'
'media_'
'Congressman_'
'someone_'
'MCCAIN_'
'18_'
'"_'
'yes_'
'woman_'
'race_'
'protect_'
'level_'
'feel_'
'allow_'
'First_'
'somebody_'
'passed_'
'men_'
'B_'
'morning_'
'maybe_'
'fighting_'
'Committee_'
'schools_'
'along_'
'ways_'
'sort_'
'WALLACE_'
'These_'
'putting_'
'pass_'
'individual_'
'Pakistan_'
'God_'
'moment_'
'le_'
'half_'
'[_'
'): _'
'using_'
'ion_'
'friends_'
'almost_'
'Tm_'
'strategy_'
'giving_'
'full_'
'17_'
' --\10;\10;_'
'themselves_'
'recent_'
'live_'
'lead_'
'industry_'
'share_'
'forces_'
'address_'
'Middle_'
'East_'
'weeks_'
'personal_'
'either_'
'difficult_'
'Here_'
'provided_'
'general_'
'amount_'
'Right_'
'H_'
', $_'
'wouldn_'
'instead_'
'ahead_'
'Florida_'
'BEGIN_'
' ‘_'
'proposed_'
'ers_'
'couple_'
'approach_'
'additional_'
'North_'
'view_'
'threat_'
'involved_'
'huge_'
'Wall_'
'Laughter_'
'@_'
'stay_'
'spent_'
'lose_'
'ideas_'
'ground_'
'experience_'
'Medicaid_'
'p_'
'night_'
'faith_'
'decisions_'
'break_'
'behind_'
'beginning_'
'Q_'
'Not_'
'Federal_'
'CNN_'
'BIDEN_'
'started_'
'CROWLEY_'
'paying_'
'likely_'
'created_'
'G_'
'COOPER_'
'room_'
'nt_'
'love_'
'14_'
'13_'
'&_'
'risk_'
'common_'
'With_'
'Some_'
'Joe_'
'16_'
'., _'
'tried_'
'individuals_'
'following_'
'en_'
'according_'
'\u_'
'FOR_'
'Democrat_'
'save_'
'respond_'
'hold_'
'higher_'
'begin_'
'>_'
'truth_'
'total_'
'send_'
'per_'
'once_'
'governor_'
'employees_'
'ation_'
'. )_'
'spend_'
'safe_'
'press_'
'numbers_'
'age_'
'Texas_'
'Mitt_'
'Israel_'
':\10;\10;_'
'raise_'
'chief_'
'*_'
'$_'
'word_'
'region_'
'reading_'
'conservative_'
'check_'
'January_'
'Court_'
'sent_'
'main_'
'intelligence_'
'anyone_'
'action_'
'South_'
'meet_'
'leader_'
'.\10;\10;"_'
'third_'
'necessary_'
'majority_'
'entire_'
'candidates_'
'Syria_'
'values_'
'supported_'
'role_'
'longer_'
'hand_'
'effective_'
'Obamacare_'
'AP_'
'allies_'
'Russian_'
'P_'
' _'
'teachers_'
'table_'
'reports_'
'police_'
'gets_'
'US_'
'known_'
'citizens_'
']_'
'Twitter_'
'June_'
'%_'
'recently_'
'primary_'
'gave_'
'failed_'
'effort_'
'2016_'
'#_'
'white_'
'remain_'
'asking_'
'votes_'
'thousands_'
'son_'
'sector_'
'held_'
'ISIS_'
'ING_'
'40_'
'2019_'
'step_'
'read_'
'k'
'certain_'
'bit_'
'NOT_'
'IT_'
'rules_'
'rs_'
'mind_'
'ment_'
'earlier_'
'board_'
'At_'
'2014_'
'senator_'
'mentioned_'
'low_'
'ies_'
'email_'
'ON_'
'According_'
'!_'
'massive_'
'build_'
'among_'
'Times_'
': "_'
'unemployment_'
'short_'
'seeing_'
'ones_'
'often_'
'nominee_'
'large_'
'aren_'
'V_'
'University_'
'K_'
'Health_'
'title_'
'terrorists_'
'specific_'
'serve_'
'religious_'
'quickly_'
'period_'
'focus_'
'^_'
'RUSSERT_'
'By_'
'response_'
'proud_'
'laws_'
'helped_'
'funding_'
'early_'
'WILLIAMS_'
'24_'
'q'
'package_'
'medical_'
'eight_'
'act_'
';_'
'rather_'
'moving_'
'i_'
'global_'
'Q'
'Can_'
': “_'
'site_'
'remember_'
'happening_'
'friend_'
'f'
'banks_'
'area_'
'agenda_'
'Facebook_'
'FBI_'
'ED_'
'Are_'
'500_'
'wrote_'
'violence_'
'social_'
'parents_'
'nearly_'
'met_'
'meeting_'
'hasn_'
'gas_'
'agreement_'
'ability_'
'W'
'Reagan_'
'March_'
'L_'
'AS_'
'). _'
'st_'
'significant_'
'non_'
'human_'
'f_'
'ble_'
'attacks_'
'Supreme_'
'90_'
'proposal_'
'equipment_'
'basic_'
'THIS_'
'Ryan_'
'OR_'
'served_'
'responsible_'
'opinion_'
'front_'
'figure_'
'critical_'
'building_'
'September_'
'California_'
'+_'
'ted_'
'sign_'
'interview_'
'himself_'
'b_'
'access_'
'2006_'
'seniors_'
'seems_'
'needed_'
'j'
'investigation_'
'brought_'
'anybody_'
'Please_'
'Just_'
'average_'
'V'
'People_'
'training_'
'tion_'
'rest_'
'reported_'
'obviously_'
'groups_'
'enforcement_'
'conversation_'
'changes_'
'ce_'
'biggest_'
'basically_'
'Sanders_'
'J_'
'1'
'works_'
'terrorist_'
'speak_'
'seven_'
'raising_'
'killed_'
'international_'
'W_'
'November_'
'F_'
'0025_'
'takes_'
'page_'
'member_'
'illegal_'
'food_'
'amendment_'
'Of_'
'NAFTA_'
'related_'
'plants_'
'key_'
'invest_'
'child_'
'cause_'
'`_'
'Y'
'His_'
'BE_'
'resources_'
'progress_'
'drug_'
'direction_'
'abortion_'
'Z'
'Sunday_'
'Post_'
'research_'
'receive_'
'play_'
'led_'
'homes_'
'fine_'
'challenge_'
'affordable_'
'Massachusetts_'
'Fox_'
'35_'
'200_'
'worse_'
'stimulus_'
'similar_'
'received_'
'offer_'
'kinds_'
'concerned_'
'benefit_'
'LAUGHTER_'
'BRAZILE_'
'5'
'2003_'
'0'
'soon_'
'shouldn_'
'quite_'
'opposed_'
'mistake_'
'happens_'
'facts_'
'efforts_'
'Then_'
'Korea_'
'Government_'
'3'
'2011_'
'trust_'
'technology_'
'peace_'
'minute_'
'land_'
'head_'
'happy_'
'grow_'
'conditions_'
'city_'
'75_'
'ty_'
'signed_'
'records_'
'prevent_'
'message_'
'improve_'
'house_'
'fix_'
'effect_'
'challenges_'
'bipartisan_'
'authority_'
'X'
'Mexico_'
'2018_'
'worth_'
'wealthy_'
'telling_'
'promise_'
'pro_'
'markets_'
'knew_'
'guy_'
'freedom_'
'calls_'
'built_'
'allowed_'
'\\_'
'Those_'
'Office_'
'2010_'
'...\10;\10;\10;\10;_'
'success_'
'premiums_'
'helping_'
'committee_'
'calling_'
'account_'
'J'
'Al_'
'7'
'outside_'
'ons_'
'legal_'
'independent_'
'fully_'
'anti_'
'Qaeda_'
'Number_'
'NATO_'
'L'
'DONNELL_'
'DONALDSON_'
'8'
'23_'
'secretary_'
'revenue_'
'release_'
'ready_'
'quote_'
'production_'
'particular_'
'growing_'
'g'
'death_'
'code_'
'areas_'
'War_'
'Putin_'
'C'
'31_'
'28_'
'…\10;\10;_'
'whatever_'
'toward_'
'test_'
'team_'
'subject_'
'lines_'
'justice_'
'hit_'
'guys_'
'finally_'
'ensure_'
'democracy_'
'decades_'
'comments_'
'civil_'
'beyond_'
'began_'
'add_'
'Will_'
'Jersey_'
'://_'
'60_'
'! _'
'upon_'
'talks_'
'recession_'
'reality_'
'ran_'
'payments_'
'hours_'
'generation_'
'creating_'
'court_'
'consider_'
'claim_'
'Wolf_'
'WILL_'
'Justice_'
'Army_'
'2009_'
'th_'
'official_'
'itself_'
'frankly_'
'expenses_'
'evidence_'
'd'
'clearly_'
'Virginia_'
'senior_'
'safety_'
'released_'
'purpose_'
'places_'
'p'
'living_'
'c'
'Provided_'
'M'
'Budget_'
'6'
'26_'
'te_'
'n'
'differences_'
'corporate_'
'capacity_'
'ally_'
'Taliban_'
'terrorism_'
'regulation_'
'ought_'
'late_'
'investment_'
'hands_'
'gotten_'
'doubt_'
'decided_'
'criminal_'
'commitment_'
'became_'
'Continue_'
'value_'
'unless_'
'successful_'
'specifically_'
'return_'
'raised_'
'purposes_'
'price_'
'leaving_'
'knows_'
'investments_'
'inside_'
'highest_'
'especially_'
'discussion_'
'breaks_'
'billions_'
'Your_'
'Administration_'
'throughout_'
'simple_'
'result_'
'relationship_'
'principles_'
'organizations_'
'mortgage_'
'm'
'liberal_'
'expect_'
'de_'
'cutting_'
'choose_'
'somehow_'
'parties_'
'include_'
'hundreds_'
'field_'
'changed_'
'H'
'Constitution_'
'African_'
'ABC_'
'4'
')(_'
'watch_'
'staff_'
'seem_'
'quality_'
'please_'
'levels_'
'largest_'
'includes_'
'disagree_'
'clean_'
'car_'
'appropriate_'
'T'
'ROBERTS_'
'N'
'K'
'Good_'
'December_'
'45_'
'* -_'
'worst_'
'potential_'
'particularly_'
'offered_'
'h'
'greater_'
'form_'
'bills_'
'b'
'Chris_'
'After_'
'27_'
'2001_'
'19_'
'voice_'
'savings_'
'reach_'
'purchase_'
'path_'
'overseas_'
'labor_'
'joining_'
'argument_'
'added_'
'WAS_'
'R'
'July_'
'Code_'
'Chicago_'
'BROWN_'
'33_'
'.)\10;\10;\10;\10;_'
'!\10;\10;_'
'views_'
'standing_'
's'
'ended_'
'dangerous_'
'cover_'
'choices_'
'book_'
'addition_'
'Tim_'
'B'
'2004_'
'."\10;\10;\10;\10;_'
'whose_'
'standards_'
'organization_'
'impact_'
'goal_'
'decide_'
'announced_'
'Mike_'
'Don_'
'stuff_'
'students_'
'steps_'
'providing_'
'ous_'
'immediately_'
'heart_'
'guns_'
'follow_'
'direct_'
'communities_'
'co_'
'below_'
'balance_'
'Oh_'
'2007_'
','
'website_'
'space_'
'sit_'
'negative_'
'however_'
'fund_'
'dollar_'
'development_'
'base_'
'advantage_'
'Saudi_'
'QUESTION_'
'BY_'
'secure_'
'nobody_'
'increased_'
'greatest_'
'fall_'
'capital_'
'assistance_'
'\10;\10;\10;\10;_'
'U'
'Tax_'
'P'
'May_'
'Even_'
'Advertisement_'
'42_'
'250_'
'2'
'yesterday_'
'starting_'
'i'
'directly_'
'attention_'
'applause_'
'Today_'
'Many_'
'LY_'
'Jim_'
'International_'
'turned_'
'ting_'
'thinking_'
'solve_'
'shows_'
'religion_'
'poor_'
'partners_'
'ors_'
'online_'
'ns_'
'list_'
'infrastructure_'
'fought_'
'event_'
'et_'
'claims_'
'basis_'
'background_'
'X_'
'WHICH_'
'Muslim_'
'…_'
'subsidies_'
'student_'
'require_'
'mandate_'
'listen_'
'learned_'
'immigrants_'
'easy_'
'director_'
'described_'
'currently_'
'bringing_'
'Michael_'
'Great_'
'David_'
'Air_'
'sometimes_'
'reasons_'
'r'
'poverty_'
'mission_'
'looked_'
'learn_'
'l'
'institutions_'
'ic_'
'century_'
'While_'
'F'
'Amendment_'
'2015_'
') -- _'
'track_'
't'
'shot_'
'requires_'
'required_'
'present_'
'killing_'
'increases_'
'inaudible_'
'cookies_'
'charge_'
'cases_'
'audience_'
'agency_'
'UNKNOWN_'
'Friday_'
'Effective_'
'Afghan_'
'9'
'water_'
'u_'
'stage_'
'ry_'
'products_'
'points_'
'judgment_'
'duty_'
'drugs_'
'continued_'
'construction_'
'behalf_'
'actions_'
'Illinois_'
'GOP_'
'Europe_'
'COONS_'
'Bob_'
'2013_'
'2012_'
'weren_'
'wait_'
'source_'
'positive_'
'plant_'
'parts_'
'opponent_'
'hearing_'
'gives_'
'final_'
'fear_'
'facing_'
'Force_'
'D'
'80_'
'32_'
'wife_'
'welcome_'
'transfer_'
'solution_'
'premium_'
'obligation_'
'kill_'
'honor_'
'fire_'
'existing_'
'domestic_'
'black_'
'agencies_'
'accounts_'
'Z_'
'JONES_'
'I'
'GIULIANI_'
'FROM_'
'An_'
'town_'
'sanctions_'
'q_'
'piece_'
'myself_'
'ity_'
'interesting_'
'evening_'
'due_'
'commission_'
'colleagues_'
'above_'
'KARL_'
'G'
'April_'
'-'
'wealth_'
'travel_'
'status_'
'regulations_'
'reforms_'
'red_'
'perhaps_'
'marriage_'
'keeping_'
'judge_'
'essentially_'
'dealing_'
'continues_'
'consequences_'
'confidence_'
'comprehensive_'
'committed_'
'broken_'
'Jake_'
'Hampshire_'
'2005_'
'wind_'
'stronger_'
'se_'
'rid_'
'rich_'
'plus_'
'mother_'
'matters_'
'manufacturing_'
'housing_'
'father_'
'card_'
'Christmas_'
' -- (_'
'video_'
'veterans_'
'u'
'strength_'
'science_'
'recovery_'
'ph_'
'forth_'
'est_'
'doctors_'
'decade_'
'ban_'
'activity_'
'World_'
'TV_'
'Mayor_'
'Arizona_'
'vision_'
'ultimately_'
'statements_'
'sick_'
'profits_'
'previous_'
'option_'
'looks_'
'ling_'
'eliminate_'
'elections_'
'couldn_'
'consumers_'
'borders_'
'believes_'
'achieve_'
'Where_'
'O'
'More_'
'County_'
'Center_'
'COURT_'
'BREAK_'
'BENEFITS_'
'Assad_'
': -- _'
'34_'
'%'
'$'
'topic_'
'tomorrow_'
'thanks_'
'supporters_'
'succeed_'
'study_'
'proposing_'
'projects_'
'priority_'
'potentially_'
'politicians_'
'phone_'
'ourselves_'
'near_'
'movement_'
'losing_'
'husband_'
'enormous_'
'deep_'
'concerns_'
'comment_'
'chairman_'
'bottom_'
'apply_'
'air_'
'Navy_'
'700_'
'supposed_'
'stood_'
'speaking_'
'solutions_'
'sites_'
'ship_'
'review_'
'recognize_'
'quick_'
'included_'
'ge_'
'e'
'ding_'
'designed_'
'climate_'
'agreements_'
'SCHIEFFER_'
'October_'
'Kennedy_'
'z_'
'vice_'
'series_'
'interested_'
'hospital_'
'game_'
'favor_'
'false_'
'experts_'
'error_'
'caused_'
'Tuesday_'
'Speaker_'
'Iraqi_'
'February_'
'City_'
'COMMERCIAL_'
': (_'
'800_'
'solar_'
'powerful_'
'fundamental_'
'fake_'
'employer_'
'crime_'
'covered_'
'classified_'
'checks_'
'behavior_'
'ad_'
'activities_'
'Union_'
'Monday_'
'However_'
'Canada_'
'Biden_'
'BAIER_'
'55_'
'voting_'
'thinks_'
'stories_'
'standard_'
'sides_'
'pre_'
'overall_'
'natural_'
'measure_'
'disaster_'
'despite_'
'dead_'
'correct_'
'concern_'
'bigger_'
'annual_'
'Ronald_'
'Moore_'
'From_'
'E'
'During_'
'AN_'
'29_'
'202_'
'2017_'
'watching_'
'society_'
'size_'
'rule_'
'road_'
'post_'
'operation_'
'notion_'
'nations_'
'influence_'
'favorable_'
'executive_'
'except_'
'events_'
'cities_'
'Schieffer_'
'Reserve_'
'European_'
'Boehner_'
'A'
'?'
'worried_'
'taxpayers_'
'supporting_'
'spoke_'
'shooting_'
'senators_'
'pick_'
'limit_'
'leading_'
'j_'
'ions_'
'focused_'
'ent_'
'dream_'
'des_'
'central_'
'campaigns_'
'bunch_'
'auto_'
'appropriated_'
'ads_'
'accurate_'
'a'
'WITH_'
'SANTORUM_'
'Robert_'
'Press_'
'Gingrich_'
'Congressional_'
'ACT_'
'300_'
'universal_'
'sources_'
'shared_'
'rise_'
'push_'
'light_'
'forced_'
'expected_'
'environmental_'
'documents_'
'details_'
'defend_'
'conflict_'
'coal_'
'] _'
'\\'
'Vice_'
'Scott_'
'Pennsylvania_'
'Muslims_'
'II_'
'!'
'wonderful_'
'victory_'
'sitting_'
'sell_'
'requirements_'
'relief_'
'reducing_'
'qualified_'
'provision_'
'opposition_'
'nce_'
'moral_'
'loss_'
'floor_'
'alone_'
'agreed_'
'Lincoln_'
'Donna_'
'Day_'
'400_'
'2002_'
'surge_'
'strike_'
'sorry_'
'prior_'
'o'
'nomination_'
'miles_'
'meant_'
'loans_'
'language_'
'generally_'
'failure_'
'emergency_'
'debates_'
'completely_'
'combat_'
'article_'
'Who_'
'Wednesday_'
'Service_'
'STEPHANOPOULOS_'
'Guard_'
'Dr_'
'CHENEY_'
'BP_'
'AUDIENCE_'
'38_'
'+'
'x_'
'waiting_'
'wages_'
'transportation_'
'regime_'
'otherwise_'
'options_'
'moved_'
'mention_'
'loopholes_'
'hour_'
'green_'
'fuel_'
'faced_'
'core_'
'commander_'
'avoid_'
'Saddam_'
'Pelosi_'
'Hill_'
'Foundation_'
'Did_'
'Absolutely_'
'70_'
'03_'
'00_'
'('
'''
'#'
'spread_'
'soldiers_'
'serving_'
'presidency_'
'posted_'
'ned_'
'lots_'
'letter_'
'host_'
'hire_'
'currency_'
'battle_'
'aid_'
'Two_'
'Nevada_'
'Leader_'
'Last_'
'Every_'
'Chinese_'
'Chairman_'
'Again_'
'@'
'>'
'39_'
' '
'results_'
'provisions_'
'provides_'
'prices_'
'planning_'
'opening_'
'officers_'
'net_'
'limited_'
'http_'
'estimates_'
'deserve_'
'consistently_'
'active_'
'West_'
'ES_'
'Capitol_'
':'
'36_'
'*'
' [_'
'à_'
'worry_'
'uses_'
'treatment_'
'self_'
'resolution_'
'repeal_'
'realize_'
'prescription_'
'population_'
'ne_'
'latest_'
'issued_'
'deliver_'
'deficits_'
'condition_'
'church_'
'although_'
'Thanks_'
'Ms_'
'Libya_'
'Delaware_'
'&'
'"'
'yourself_'
'ying_'
'written_'
'version_'
'stopped_'
'stake_'
'showed_'
'seek_'
'remarks_'
'reasonable_'
'procurement_'
'poll_'
'org_'
'ordinary_'
'les_'
'kept_'
'join_'
'facilities_'
'daughter_'
'corporations_'
'content_'
'consequence_'
'conducted_'
'claimed_'
'authorized_'
'allows_'
'^'
'Ted_'
'Second_'
'Program_'
'Most_'
'Mark_'
'Carolina_'
'CONGRESS_'
'48_'
',\10;\10;_'
'waste_'
'w'
'ton_'
'ten_'
'ss_'
'sacrifice_'
'reporters_'
'proposals_'
'profit_'
'owned_'
'model_'
'limits_'
'ke_'
'identified_'
'hurt_'
'foundation_'
'financing_'
'died_'
'deals_'
'conservatives_'
'conference_'
'closing_'
'balanced_'
'appreciate_'
'affect_'
'\u'
'S'
'Other_'
'Internet_'
'GM_'
'August_'
'Attorney_'
'Arab_'
';'
'95_'
'600_'
'www_'
'weapon_'
'walk_'
'terror_'
'stated_'
'smart_'
'separations_'
'projected_'
'prison_'
'negotiate_'
'independence_'
'incomes_'
'eventually_'
'elect_'
'contributions_'
'competition_'
'charges_'
'bbl_'
'attorney_'
'approval_'
'accountable_'
']'
'Treasury_'
'Or_'
'Nay_'
'Cruz_'
'37_'
'.”\10;\10;“_'
' --\10;\10;\10;\10;_'
'wealthiest_'
'visit_'
'victims_'
'tremendous_'
'towards_'
'taxpayer_'
'sound_'
'season_'
'rising_'
'promised_'
'positions_'
'ping_'
'owners_'
'oversight_'
'operations_'
'maintain_'
'lack_'
'guess_'
'funded_'
'felt_'
'feeling_'
'extreme_'
'develop_'
'damage_'
'['
'Sherrod_'
'Qaida_'
'James_'
'Colorado_'
'write_'
'wars_'
'turning_'
'transcript_'
'speeches_'
'seat_'
'roundtable_'
'regarding_'
'radical_'
'published_'
'protection_'
'property_'
'material_'
'lobbyists_'
'illegally_'
'holding_'
'generations_'
'engaged_'
'eligible_'
'ds_'
'determine_'
'compared_'
'burden_'
'argue_'
'alternative_'
'WikiLeaks_'
'SECURITY_'
'Russians_'
'Rep_'
'Mueller_'
'Maybe_'
'Commission_'
'Bernie_'
'BOEHNER_'
'="_'
'='
'<_'
'52_'
'47_'
'wish_'
'whom_'
'understanding_'
'suggesting_'
'saved_'
'retirement_'
'repeatedly_'
'reached_'
'perfect_'
'none_'
'ness_'
'mandatory_'
'hundred_'
'goods_'
'gains_'
'fraud_'
'exchange_'
'enemies_'
'encourage_'
'efficient_'
'diplomatic_'
'defeat_'
'deeply_'
'deductions_'
'constitutional_'
'compromise_'
'competitive_'
'born_'
'belief_'
'beat_'
'bank_'
'appropriations_'
'ant_'
'`'
'Since_'
'Services_'
'Palin_'
'ITS_'
'Airport_'
':\10;\10;“_'
'.'
'wage_'
'v_'
'traditional_'
'terrible_'
'systems_'
'summer_'
'straight_'
'separate_'
'restore_'
'registered_'
'pushing_'
'pull_'
'project_'
'politically_'
'payroll_'
'occurred_'
'mine_'
'loan_'
'ive_'
'investing_'
'fired_'
'fast_'
'earmarks_'
'drive_'
'drilling_'
'cars_'
'ate_'
'aside_'
'accept_'
']\10;\10;_'
'YouTube_'
'Week_'
'UNIDENTIFIED_'
'Tom_'
'San_'
'SOCIAL_'
'Instead_'
'Fund_'
'Care_'
'09_'
'w_'
'strategic_'
'segment_'
'ring_'
'presidents_'
'pointed_'
'playing_'
'note_'
'listening_'
'le'
'hate_'
'harder_'
'gov_'
'fail_'
'expensive_'
'employment_'
'determined_'
'criticism_'
'ck_'
'cell_'
'career_'
'body_'
'assault_'
'analysis_'
'amounts_'
'Would_'
'WOODRUFF_'
'Under_'
'Public_'
'McConnell_'
'Journal_'
'GEITHNER_'
'Brown_'
'Arabia_'
'?\10;\10;(_'
'43_'
'41_'
'21st_'
')'
'worker_'
'winning_'
'versus_'
'unique_'
'thousand_'
'strengthen_'
'reserve_'
'produced_'
'prepared_'
'popular_'
'patient_'
'oppose_'
'network_'
'mass_'
'ism_'
'intend_'
'increasing_'
'honest_'
'firearms_'
'extraordinary_'
'expansion_'
'estimated_'
'enforce_'
'employers_'
'crowd_'
'continuing_'
'civilian_'
'blame_'
'anywhere_'
'Their_'
'Syrian_'
'Rick_'
'KARIBJANIAN_'
'Islam_'
'Hussein_'
'Education_'
'Earth_'
'Catholic_'
'ARE_'
'51_'
'04_'
'025_'
'01_'
'."_'
' | _'
'supports_'
'suggested_'
'sending_'
'reduction_'
'rating_'
'range_'
'produce_'
'personnel_'
'permanent_'
'patients_'
'offshore_'
'officer_'
'ments_'
'ings_'
'indicated_'
'extra_'
'effectively_'
'discretionary_'
'creation_'
'congressional_'
'citizenship_'
'ch_'
'center_'
'adults_'
'Vietnam_'
'Very_'
'Sarah_'
'Frank_'
'ER_'
'College_'
'CUPP_'
'AT_'
'06_'
'/'
'warned_'
'vast_'
'union_'
'understands_'
'treat_'
'struggling_'
'screen_'
'puts_'
'pursue_'
'publicly_'
'prosperity_'
'promote_'
'practice_'
'percentage_'
'nationwide_'
'marijuana_'
'la_'
'ful_'
'forget_'
'followed_'
'firearm_'
'extremely_'
'era_'
'enemy_'
'door_'
'credibility_'
'count_'
'changing_'
'cap_'
'cancer_'
'bin_'
'adviser_'
'adding_'
'WHO_'
'Trade_'
'Does_'
'Dodd_'
'CIA_'
'Before_'
'AM_'
'53_'
'2000_'
'08_'
'wing_'
'understood_'
'um_'
'transferred_'
'ties_'
'threats_'
'therefore_'
'television_'
'task_'
'suggest_'
'seriously_'
'ruling_'
'pushed_'
'product_'
'picked_'
'obligations_'
'legislature_'
'imagine_'
'finance_'
'fellow_'
'extend_'
'explain_'
'exist_'
'ded_'
'corruption_'
'considered_'
'confirmed_'
'collapse_'
'cast_'
'becoming_'
'baby_'
'ary_'
'angry_'
'\10;\10;'
'Yea_'
'Trendolizer_'
'Research_'
'REP_'
'Michelle_'
'MULLEN_'
'King_'
'Foreign_'
'DNC_'
'?" _'
'. '
'-- _'
' & _'
'zero_'
'truly_'
'train_'
'to'
'stands_'
'sold_'
'sharing_'
'saving_'
'remains_'
'principle_'
'picture_'
'opportunities_'
'ning_'
'ms_'
'mental_'
'mails_'
'larger_'
'incident_'
'id_'
'guarantee_'
'fields_'
'facility_'
'estate_'
'established_'
'discuss_'
'date_'
'credits_'
'cooperation_'
'confident_'
'complete_'
'commercial_'
'cash_'
'carry_'
'abuse_'
'VAUGHN_'
'Total_'
'Reid_'
'Ra'
'Petraeus_'
'PENCE_'
'Nobody_'
'NO_'
'Iraqis_'
'Christian_'
'BROWNBACK_'
'violent_'
'vehicles_'
'unfavorable_'
'tools_'
'storm_'
'shut_'
'secret_'
'protecting_'
'incredible_'
'employee_'
'doctor_'
'cy_'
'coalition_'
'budgets_'
'birth_'
'ations_'
'appears_'
'acknowledge_'
'accused_'
'Saturday_'
'SUCH_'
'Like_'
'Jewish_'
'Insurance_'
'HIS_'
'Georgia_'
'Both_'
'44_'
'05_'
')-_'
'tions_'
'sounds_'
'sex_'
'search_'
'reportedly_'
'replace_'
'possibility_'
'polls_'
'personally_'
'partisan_'
'offers_'
'named_'
'multiple_'
'mostly_'
'measures_'
'mayor_'
'mate_'
'mail_'
'largely_'
'joined_'
'immediate_'
'https_'
'highly_'
'firm_'
'ends_'
'do'
'denied_'
'crimes_'
'courage_'
'contract_'
'connection_'
'concluded_'
'attempt_'
'approximately_'
'accountability_'
'accident_'
'Yeah_'
'Up_'
'Tea_'
'Ta'
'Islamic_'
'Go_'
'Christiane_'
'86_'
'1994_'
'18'
'07_'
' /_'
'wise_'
'vulnerable_'
'tra'
'strongly_'
'relevant_'
'receiving_'
'payment_'
'maintenance_'
'ma_'
'laid_'
'judges_'
'introduced_'
'impose_'
'ial_'
'hall_'
'expand_'
'engage_'
'el_'
'demand_'
'degree_'
'consumer_'
'believed_'
'attacked_'
'allowing_'
'advertising_'
'Wisconsin_'
'WOULD_'
'Representatives_'
'Obviously_'
'Jones_'
'Detroit_'
'Corps_'
'Also_'
'About_'
'ANY_'
'98_'
')- _'
'“_'
'ves_'
'ure_'
'transition_'
'ter_'
'tape_'
'skills_'
'revenues_'
'regard_'
'refugees_'
'protests_'
'proposes_'
'previously_'
'practices_'
'possibly_'
'outstanding_'
'noted_'
'nice_'
'names_'
'management_'
'lie_'
'knowing_'
'importantly_'
'equal_'
'environment_'
'effects_'
'divided_'
'closed_'
'chemical_'
'buying_'
'breaking_'
'bomb_'
'becomes_'
'bankruptcy_'
'approved_'
'appropriation_'
'acting_'
'Welcome_'
'Sure_'
'St_'
'Sam_'
'Rand_'
'PELOSI_'
'Newt_'
'Nations_'
'Michigan_'
'Marine_'
'MAY_'
'LIEBERMAN_'
'Intelligence_'
'Her_'
'Have_'
'Fred_'
'Eric_'
'Depression_'
'Cleveland_'
'Carter_'
'Brian_'
'Breitbart_'
'1076_'
')\10;\10;(_'
'); _'
' (@_'
'z'
'unions_'
'unfortunately_'
'starts_'
'stability_'
'somewhat_'
'reserves_'
'represent_'
'regardless_'
'proven_'
'privacy_'
'pressure_'
'offering_'
'neither_'
'negotiations_'
'necessarily_'
'lu'
'item_'
'ine_'
'harm_'
'fewer_'
'extent_'
'essential_'
'department_'
'conduct_'
'comfortable_'
'closer_'
'caught_'
'careful_'
'automatically_'
'answers_'
'Yemen_'
'Web_'
'VIDEOTAPE_'
'Rubio_'
'Policy_'
'Part_'
'MCCONNELL_'
'MALE_'
'Le'
'Law_'
'Giuliani_'
'Gates_'
'GATES_'
'Denver_'
'Christie_'
'CQ_'
'Bible_'
'Any_'
'weak_'
'vital_'
'uninsured_'
'transparency_'
'totally_'
'survey_'
'subsection_'
'roads_'
'rhetoric_'
'rebuild_'
'rally_'
'minority_'
'math_'
'literally_'
'ks_'
'intended_'
'image_'
'eye_'
'enter_'
'double_'
'criminals_'
'consistent_'
'bly_'
'ated_'
'afraid_'
'actual_'
'acts_'
'UNDER_'
'Tennessee_'
'Sign_'
'See_'
'Roe_'
'Police_'
'Po'
'Over_'
'NFL_'
'Minister_'
'Harry_'
'HE_'
'Guantanamo_'
'Gadhafi_'
'CHRISTIE_'
'?” _'
'... _'
', ‘_'
' #_'
'y'
'x'
'wall_'
'veto_'
'various_'
'type_'
'trained_'
'strikes_'
'spill_'
'refused_'
'priorities_'
'prevention_'
'opt_'
'nature_'
'mess_'
'king_'
'indeed_'
'homeowners_'
'go'
'enactment_'
'driving_'
'donors_'
'district_'
'die_'
'contribute_'
'charged_'
'brother_'
'broke_'
'books_'
'bless_'
'Wade_'
'VI'
'Procurement_'
'Mo'
'Laden_'
'KRUGMAN_'
'HARWOOD_'
'Gulf_'
'Former_'
'FOX_'
'English_'
'CONGRESSMAN_'
'CBO_'
'British_'
'Aramco_'
'Ar'
'54_'
')\10;\10;[_'
').\10;\10;_'
' , _'
'ze_'
'vous_'
'voucher_'
'ving_'
'unacceptable_'
'trail_'
'technologies_'
'targeted_'
'struggle_'
'streets_'
'smaller_'
'sir_'
'shed_'
'sh_'
'sa'
'removed_'
'reduced_'
'rebels_'
'protected_'
'pledge_'
'original_'
'openly_'
'nor_'
'materials_'
'launched_'
'keeps_'
'implement_'
'hospitals_'
'hoping_'
'flag_'
'firms_'
'fill_'
'fees_'
'fairly_'
'establish_'
'entirely_'
'emissions_'
'dreams_'
'devices_'
'der_'
'carried_'
'anymore_'
'aides_'
'agent_'
'advance_'
'\10;\10;(_'
'Time_'
'Thursday_'
'Roosevelt_'
'Peter_'
'Nothing_'
'Nation_'
'Li'
'Jun_'
'Ha'
'HAVE_'
'GDP_'
'CA_'
'Bo'
'Alaska_'
'58_'
'--_'
'withdrawal_'
'ue_'
'tweet_'
'trading_'
'spoken_'
'sing_'
'shown_'
'showing_'
'sat_'
'request_'
'relations_'
'refuse_'
'racist_'
'pro'
'politician_'
'perspective_'
'personalized_'
'ped_'
'pain_'
'letting_'
'ja'
'institution_'
'instance_'
'innovation_'
'identify_'
'ia_'
'healthy_'
'goals_'
'finish_'
'fee_'
'faster_'
'expressed_'
'exceed_'
'easier_'
'drop_'
'determination_'
'describe_'
'deaths_'
'complex_'
'co'
'circumstances_'
'capability_'
'box_'
'borrowing_'
'blind_'
'arrested_'
'amnesty_'
'alleged_'
'Was_'
'Santorum_'
'Sa'
'SI'
'Pence_'
'Nancy_'
'Kentucky_'
'INSURANCE_'
'Hi'
'Council_'
'Cheney_'
'Affordable_'
'49_'
'1125_'
'_'
'zed_'
'welfare_'
'wave_'
'warming_'
'voluntary_'
'virtually_'
'under'
'twitter_'
'target_'
'surprised_'
'supporter_'
'street_'
'slow_'
'slightly_'
'si'
'ses_'
'seconds_'
'sales_'
'reaction_'
'rd_'
'racial_'
'pursuant_'
'ps_'
'promises_'
'preserve_'
'owner_'
'nine_'
'newsletters_'
'nd_'
'meetings_'
'me'
'lifetime_'
'lending_'
'laughter_'
'ist_'
'inner_'
'inflation_'
'hurting_'
'humanitarian_'
'headed_'
'grants_'
'gain_'
'famous_'
'ending_'
'dependence_'
'democratic_'
'declared_'
'clicking_'
'caucus_'
'brings_'
'aware_'
'armed_'
'anger_'
'afternoon_'
'TION_'
'Require_'
'Per'
'NT_'
'NE'
'Martha_'
'Main_'
'Labor_'
'La'
'Kerry_'
'Iranians_'
'Iowa_'
'Institute_'
'In'
'Haiti_'
'HAYES_'
'De'
'Ba'
'Al'
'ATION_'
'97_'
'70'
'65_'
'46_'
', )_'
')\10;\10;... _'
' . _'
'ville_'
'trouble_'
'trip_'
'treaty_'
'torture_'
'text_'
'tests_'
'tells_'
'teaching_'
'te'
'suffering_'
'setting_'
'scientists_'
'safer_'
'revealed_'
'responded_'
'reject_'
'recommendations_'
'pulled_'
'providers_'
'prove_'
'pocket_'
'played_'
'perform_'
'per'
'pension_'
'partner_'
'organized_'
'operating_'
'ny_'
'moderate_'
'missiles_'
'minimum_'
'medicine_'
'meaning_'
'legitimate_'
'legislative_'
'lady_'
'knowledge_'
'herself_'
'hell_'
'governments_'
'feels_'
'failing_'
'document_'
'developing_'
'destruction_'
'destroy_'
'decline_'
'complicated_'
'communications_'
'combined_'
'citizen_'
'ca'
'broader_'
'bought_'
'adjusted_'
'Unfortunately_'
'Tf_'
'THEIR_'
'Should_'
'School_'
'Richard_'
'Pro'
'Plus_'
'Pentagon_'
'Only_'
'ONE_'
'Never_'
'Nelson_'
'NG_'
'HAS_'
'Graham_'
'Go'
'Ga'
'Fort_'
'Egypt_'
'EPA_'
'Co'
'CEO_'
'CA'
'Ambassador_'
'38'
'zing_'
'watched_'
'warning_'
'via_'
'ut_'
'treated_'
'teacher_'
'style_'
'studies_'
'star_'
'signs_'
'seeking_'
'returns_'
'remind_'
'registrant_'
'referred_'
'quarter_'
'protest_'
'presented_'
'paper_'
'negotiating_'
'ne'
'mp'
'modern_'
'ls_'
'lo'
'lly_'
'leaves_'
'leads_'
'lawyer_'
'journalists_'
'items_'
'instant_'
'hole_'
'hires_'
'gi'
'exercise_'
'eliminating_'
'courts_'
'context_'
'constituents_'
'compete_'
'cies_'
'bus_'
'arms_'
'appointed_'
'apparently_'
'agents_'
'\10;\10;“_'
'Which_'
'VAN_'
'Smith_'
'SENIOR_'
'SEE_'
'Rights_'
'Report_'
'Poll_'
'PUNISHMENT_'
'Military_'
'Jennifer_'
'ION_'
'IN'
'Hurricane_'
'District_'
'BUT_'
'Assange_'
'ALL_'
'AC'
'16'
'..._'
'… _'
'web_'
'twice_'
'the'
'suddenly_'
'structure_'
'sought_'
'server_'
'sale_'
'reverse_'
'resolve_'
'reporting_'
'referring_'
'recall_'
'photo_'
'passing_'
'participating_'
'older_'
'objective_'
'obj_'
'no'
'mon'
'missile_'
'minds_'
'mainstream_'
'lies_'
'inter'
'hearings_'
'hadn_'
'gentlemen_'
'gays_'
'gathered_'
'freeze_'
'filled_'
'fi'
'fence_'
'feet_'
'entitlement_'
'entering_'
'endobj_'
'embrace_'
'effectiveness_'
'economists_'
'diplomacy_'
'danger_'
'culture_'
'contained_'
'congressman_'
'colleague_'
'clock_'
'carrying_'
'broad_'
'beneficiaries_'
'attacking_'
'arguments_'
'ance_'
'Whether_'
'USA_'
'Snopes_'
'Sheriff_'
'STATUTE_'
'Roy_'
'Privacy_'
'Politics_'
'Pe'
'Ma'
'Las_'
'LA'
'Korean_'
'Jr_'
'Jan_'
'JUDY_'
'Information_'
'IT'
'Gore_'
'GU'
'Free_'
'Ford_'
'Fe'
'Everybody_'
'El'
'DI'
'CO'
'Association_'
'AL_'
'ADMINISTRATION_'
'? (_'
'59_'
'1954_'
'150_'
'02_'
',’ _'
' ± _'
'ys_'
'weekend_'
'walked_'
'wa'
'vouchers_'
'vo'
'ver_'
'unprecedented_'
'threatened_'
'supply_'
'supplies_'
'substantial_'
'store_'
'sti'
'session_'
'seemed_'
'se'
'risks_'
'reporter_'
'renegotiate_'
'releasing_'
'reductions_'
'raises_'
'preventive_'
'po'
'placed_'
'performance_'
'penalty_'
'parent_'
'pages_'
'ously_'
'ordered_'
'opponents_'
'machine_'
'ma'
'liberty_'
'ka'
'internet_'
'insured_'
'ine'
'ill_'
'hotel_'
'he'
'guidance_'
'gs_'
'granted_'
'girl_'
'gap_'
'finding_'
'figures_'
'exempt_'
'estimate_'
'establishment_'
'earned_'
'disease_'
'cycle_'
'criticized_'
'controversial_'
'contain_'
'consent_'
'ce'
'bet_'
'associated_'
'appeared_'
'apart_'
'answered_'
'allegedly_'
'Za'
'Yet_'
'Warren_'
'WERE_'
'Vegas_'
'Share_'
'RA'
'Pope_'
'Operation_'
'None_'
'NBC_'
'NASA_'
'Margin_'
'Mar'
'Make_'
'Kingdom_'
'Joint_'
'Israeli_'
'Hunter_'
'HOYER_'
'Get_'
'Farrakhan_'
'FORMER_'
'FA'
'Director_'
'Civil_'
'Car'
'Brazile_'
'Board_'
'Another_'
'57_'
'44'
'404_'
'1999_'
'10'
'.[_'
'...\10;\10;\10;\10;(_'
'!\10;\10;\10;\10;_'
' ... _'
'™ _'
'wondering_'
'weigh_'
'voter_'
'vehicle_'
'vaccines_'
'ur'
'tu'
'tri'
'tragedy_'
'traffic_'
'tic_'
'throw_'
'tens_'
'takeover_'
'suspect_'
'strongest_'
'stock_'
'stance_'
'sta'
'speed_'
'soldier_'
'shutdown_'
'scale_'
'satellites_'
'residents_'
'requirement_'
'rejected_'
'reconciliation_'
'reckless_'
'radio_'
'pump_'
'properly_'
'privilege_'
'preexisting_'
'pre'
'papers_'
'out'
'onto_'
'obvious_'
'newspaper_'
'neighbors_'
'mis'
'loved_'
'layoffs_'
'journey_'
'joint_'
'improving_'
'hacked_'
'grown_'
'gra'
'fit_'
'fighters_'
'fashion_'
'expert_'
'exact_'
'engine_'
'elsewhere_'
'ec'
'disappointed_'
'desire_'
'deduction_'
'daily_'
'da'
'convinced_'
'contact_'
'constantly_'
'closely_'
'buildings_'
'blood_'
'bi'
'begins_'
'beautiful_'
'barrel_'
'author_'
'assure_'
'assets_'
'ar_'
'apology_'
'and'
'aisle_'
'advocates_'
'Simpson_'
'Si'
'STEELE_'
'STATES_'
'Pakistani_'
'PAUL_'
'Nixon_'
'Ne'
'NRA_'
'Mitch_'
'Minnesota_'
'MENT_'
'LO'
'Johnson_'
'Hol'
'Gov_'
'Finance_'
'Finally_'
'Fa'
'Daily_'
'DO'
'Cor'
'Church_'
'Ce'
'Caucus_'
'Bureau_'
'BILL_'
'BEEN_'
'Although_'
'AR'
'AFTER_'
'89_'
'5617_'
'/\10;\10;_'
'.\10;\10;'
'— _'
'writing_'
'work'
'viewers_'
'ver'
'utilities_'
'user_'
'updates_'
'unreasonable_'
'uni'
'unfair_'
'unemployed_'
'undocumented_'
'un_'
'tougher_'
'temporary_'
'surplus_'
'sur_'
'sts_'
'satellite_'
'roll_'
'remaining_'
'protesters_'
'professor_'
'pockets_'
'platform_'
'pi'
'pastor_'
'passenger_'
'panel_'
'pa'
'over'
'of'
'nursing_'
'ngs_'
'na_'
'liberals_'
'lay_'
'involvement_'
'industries_'
'inc'
'ideals_'
'ian_'
'honestly_'
'historic_'
'hi'
'fe'
'er'
'drone_'
'drill_'
'doubled_'
'disagreed_'
'developed_'
'devastating_'
'deny_'
'deleted_'
'county_'
'computer_'
'collect_'
'borrow_'
'block_'
'barrels_'
'ballot_'
'authorities_'
'aspect_'
'army_'
'argued_'
'WA'
'VE_'
'So'
'Sha'
'SUSTEREN_'
'SP'
'SA'
'Patrick_'
'MS_'
'ME'
'Lo'
'Island_'
'ID_'
'Ho'
'HUCKABEE_'
'Geithner_'
'GO'
'Edwards_'
'Di'
'Despite_'
'DORSEY_'
'DIS'
'CO_'
'Bowles_'
'Boston_'
'Baghdad_'
'Africa_'
'AGE_'
'62'
'49'
'48'
'35'
'24'
'224_'
'1990s_'
'--\10;\10;_'
', '
'wide_'
'ures_'
'un'
'typically_'
'turns_'
'tro'
'traveled_'
'tied_'
'taxed_'
'sur'
'sponsored_'
'spirit_'
'significantly_'
'sho'
'sheet_'
'sexual_'
'selling_'
'ro'
'restrictions_'
'resign_'
'requests_'
'repeat_'
'remove_'
'protections_'
'players_'
'penalties_'
'ou'
'opened_'
'ob'
'mortgages_'
'lived_'
'lied_'
'laying_'
'lawmakers_'
'innocent_'
'ied_'
'ice_'
'horrible_'
'ho'
'heading_'
'ging_'
'fly_'
'ez_'
'explained_'
'excuse_'
'em_'
'earn_'
'dy_'
'driven_'
'discussing_'
'decent_'
'creates_'
'considering_'
'concept_'
'capabilities_'
'blow_'
'bailout_'
'back'
'attempted_'
'approaches_'
'appeal_'
'announcement_'
'amended_'
'amazing_'
'aircraft_'
'ages_'
'affected_'
'advice_'
'acquired_'
'WE_'
'Vermont_'
'Ukraine_'
'UNITED_'
'Stone_'
'Ro'
'Relations_'
'Rea'
'RIGHT_'
'Prime_'
'Presidential_'
'Pi'
'Pa'
'Once_'
'Next_'
'Nader_'
'Ka'
'KING_'
'Japan_'
'Ja'
'Iranian_'
'INDIVIDUAL_'
'Harbor_'
'HOLDER_'
'Favorable_'
'Exchanges_'
'ET_'
'EDT_'
'Duncan_'
'DE'
'Children_'
'CT_'
'CI'
'Benghazi_'
'Associated_'
'Andrew_'
'ATTAINDER_'
': … _'
': '
'85_'
'716_'
'51'
'41'
'39'
'130_'
'105_'
'0625_'
') '
' ._'
'younger_'
'wonder_'
'whoever_'
'veteran_'
'tweeted_'
'touch_'
'tive_'
'therefor_'
'tan'
'sy_'
'surprise_'
'subpoena_'
'ss'
'south_'
'sorts_'
'shift_'
'ruled_'
'round_'
'reward_'
'represented_'
'reflect_'
'rebuilding_'
'reaching_'
'ranking_'
'purchased_'
'prosecuted_'
'proof_'
'portion_'
'pieces_'
'phrase_'
'openings_'
'nts_'
'notice_'
'ner_'
'murder_'
'ming_'
'licensed_'
'leverage_'
'jo'
'jail_'
'integrity_'
'insurers_'
'incentive_'
'ie_'
'ic'
'heavy_'
'handling_'
'grade_'
'ges_'
'ged_'
'film_'
'fault_'
'fallen_'
'endorsed_'
'easily_'
'du'
'dramatic_'
'disabled_'
'device_'
'dark_'
'crude_'
'counter_'
'containing_'
'consensus_'
'confirm_'
'commit_'
'chose_'
'capable_'
'can'
'burg_'
'bargaining_'
'badly_'
'assessment_'
'advocate_'
'adds_'
'Ya'
'Think_'
'TE_'
'Steve_'
'Special_'
'Scranton_'
'Ron_'
'PolitiFact_'
'Perry_'
'Oil_'
'OFFICIAL_'
'Na'
'MEMBER_'
'IF_'
'ICE_'
'Hu'
'HA'
'Gu'
'Financial_'
'Fi'
'Excuse_'
'Energy_'
'En'
'Election_'
'Do'
'DEPORTATION_'
'Contact_'
'CES_'
'CBS_'
'Bu'
'Bar'
'BRIEN_'
'Armed_'
'Anthony_'
'Am'
'71'
'30'
'2020_'
'.\10;\10;\10;\10;"_'
'. . "_'
'ya'
'wasteful_'
'war'
'vaccine_'
'up'
'targets_'
'super_'
'suggests_'
'steel_'
'station_'
'spokesman_'
'specified_'
'sons_'
'so'
'shortly_'
'ships_'
'severe_'
'seats_'
'requiring_'
'requested_'
'repair_'
'regulatory_'
'refer_'
'recognized_'
'rape_'
'pursuing_'
'propose_'
'professional_'
'planned_'
'planes_'
'pic'
'physical_'
'philosophy_'
'para'
'par'
'operate_'
'ongoing_'
'om'
'normal_'
'na'
'location_'
'ley_'
'legacy_'
'is'
'investors_'
'incumbent_'
'increasingly_'
'incentives_'
'importance_'
'immigrant_'
'illness_'
'hotline_'
'hopes_'
'hiring_'
'heads_'
'hacking_'
'grandmother_'
'exists_'
'exclusive_'
'ethanol_'
'entertainment_'
'ence_'
'employed_'
'elements_'
'economics_'
'directed_'
'destroyed_'
'definitely_'
'defined_'
'define_'
'declined_'
'dad_'
'copies_'
'convince_'
'convention_'
'contrast_'
'comparison_'
'ck'
'civilians_'
'ces_'
'causing_'
'category_'
'carefully_'
'campaigning_'
'campaigned_'
'cal_'
'bid_'
'bb'
'ball_'
'approve_'
'appear_'
'ambassador_'
'aggressive_'
'affairs_'
'advocated_'
'advanced_'
'admitted_'
'actor_'
'accomplish_'
'acceptable_'
'abortions_'
'Vi'
'Unfavorable_'
'UC'
'True_'
'Title_'
'Te'
'THEY_'
'Specter_'
'Santa_'
'ST_'
'PERSONS_'
'OTHER_'
'NI'
'Martin_'
'Lady_'
'LARSON_'
'Indiana_'
'IC'
'Hood_'
'HOUSE_'
'HAD_'
'GIBBS_'
'France_'
'Four_'
'FI'
'Each_'
'EDWARDS_'
'Cuba_'
'Commerce_'
'Chief_'
'Candy_'
'COUNTRY_'
'CHIARELLI_'
'Buffett_'
'Award_'
'Actually_'
'AN'
'AMY_'
'AM'
'61'
'53'
'52'
'40'
'110_'
'za'
'wounded_'
'we'
'violation_'
've'
'ut'
'uranium_'
'updated_'
'unnecessary_'
'tuition_'
'trial_'
'trans'
'thoughts_'
'ther'
'ten'
'tech_'
'sustain_'
'stopping_'
'ster_'
'sponsor_'
'silent_'
'shape_'
'selection_'
'resulting_'
'replaced_'
'regions_'
'regional_'
'pulling_'
'progressive_'
'producing_'
'primarily_'
'precisely_'
'pending_'
'pen'
'pays_'
'participate_'
'owe_'
'overturn_'
'ory_'
'odds_'
'noticed_'
'newsletter_'
'movie_'
'modification_'
'missed_'
'messages_'
'legally_'
'learning_'
'lan'
'ki'
'ju'
'ized_'
'involves_'
'investigate_'
'ideological_'
'hu'
'homeland_'
'holiday_'
'handle_'
'ha'
'grew_'
'grant_'
'governors_'
'girls_'
'fourth_'
'for'
'fo'
'finished_'
'fighter_'
'faces_'
'exposed_'
'exports_'
'expire_'
'entitled_'
'ely_'
'eb'
'ea'
'draw_'
'dog_'
'dis'
'devoted_'
'depends_'
'depend_'
'dedicated_'
'database_'
'connected_'
'collective_'
'che'
'chair_'
'centers_'
'categories_'
'cards_'
'boy_'
'bor'
'bias_'
'at'
'as'
'anyway_'
'admit_'
'ab'
'Year_'
'Voice_'
'Tweet_'
'Ti'
'Third_'
'Super_'
'Sunni_'
'Soros_'
'Rouhani_'
'Ri'
'Reverend_'
'Remember_'
'Plan_'
'PEOPLE_'
'NE_'
'Minneapolis_'
'Merry_'
'MA'
'Louisiana_'
'London_'
'LI'
'Karzai_'
'Jon_'
'Jo'
'Jeff_'
'Jack_'
'IL_'
'Homeland_'
'Group_'
'Germany_'
'GOODMAN_'
'Francis_'
'Feinstein_'
'Everyone_'
'Economic_'
'ER'
'Douglas_'
'DC_'
'Blumenthal_'
'Black_'
'BO'
'Ayers_'
'Asked_'
'Advantage_'
'Action_'
'AL'
'79'
'72_'
'58'
'28'
'20'
'197'
'. ``(_'
'yeah_'
'xi'
'wor'
'withdraw_'
'weather_'
'typical_'
'tweets_'
'traveling_'
'tool_'
'tone_'
'tly_'
'theory_'
'testing_'
'technical_'
'tackle_'
'submit_'
'strict_'
'stamps_'
'stakes_'
'southern_'
'situations_'
'shipping_'
'sees_'
'scheduled_'
'rush_'
'ru'
'responsibilities_'
'res'
'rely_'
'regulators_'
'prosecutor_'
'procedures_'
'prepare_'
'pose_'
'payer_'
'ownership_'
'overcome_'
'outcome_'
'our'
'ot_'
'originally_'
'ol'
'nti'
'notes_'
'nc'
'monitor_'
'moments_'
'mistakes_'
'missing_'
'med_'
'married_'
'marketplace_'
'mark_'
'manager_'
'lowest_'
'located_'
'likes_'
'lenders_'
'lands_'
'judgments_'
'ities_'
'ious_'
'introduce_'
'initiative_'
'initial_'
'influenza_'
'independents_'
'ia'
'honored_'
'hired_'
'headquarters_'
'havens_'
'hand'
'gri'
'grandfather_'
'gift_'
'giant_'
'gay_'
'games_'
'fun_'
'flu_'
'fixing_'
'ff'
'fathers_'
'familiar_'
'falling_'
'extended_'
'express_'
'exploration_'
'excess_'
'exception_'
'examine_'
'ethics_'
'enti'
'engaging_'
'ele'
'elderly_'
'edge_'
'donations_'
'districts_'
'discovered_'
'differently_'
'detail_'
'debris_'
'critics_'
'crazy_'
'corrupt_'
'conversations_'
'controversy_'
'contracts_'
'compliance_'
'communication_'
'claiming_'
'checking_'
'catastrophic_'
'bo'
'begun_'
'bed_'
'backs_'
'attitude_'
'attempting_'
'arrived_'
'apologize_'
'VA_'
'UPON_'
'Tu'
'Transportation_'
'Soviet_'
'Source_'
'Shelby_'
'Sessions_'
'Se'
'Schumer_'
'SO'
'RI'
'PA_'
'Oval_'
'Netanyahu_'
'Mosul_'
'Mari'
'Mar_'
'Management_'
'MSNBC_'
'MP'
'Judge_'
'Jesus_'
'Idaho_'
'IS'
'Human_'
'Holder_'
'Hold_'
'HUNTER_'
'HIM_'
'Greece_'
'Gi'
'Ge'
'GREGORY_'
'Franklin_'
'Fo'
'FPL_'
'ERS_'
'EN'
'Donnell_'
'Coast_'
'CONRAD_'
'Bay_'
'Agency_'
'APPELLEE_'
'91_'
'78'
'72'
'62_'
'46'
'43'
'42'
'32'
'27'
'133_'
'07'
'の'
'’, $_'
'‘_'
'youth_'
'winner_'
'whi'
'ward_'
'vidéo_'
'usual_'
'uniform_'
'ul_'
'ul'
'tragic_'
'tradition_'
'tobacco_'
'tired_'
'threatening_'
'tes_'
'suicide_'
'staying_'
'square_'
'signal_'
'sha'
'seasonally_'
'sco'
'sal'
'rural_'
'rt_'
'returned_'
'retire_'
'rescue_'
'representative_'
'recover_'
'ra'
'pool_'
'plumber_'
'pla'
'pictures_'
'numerous_'
'nt'
'meat_'
'match_'
'mar'
'manage_'
'losses_'
'liked_'
'land'
'la'
'ked_'
'il_'
'ig'
'ideology_'
'identity_'
'ica'
'hoo'
'home'
'hip_'
'heavily_'
'gu'
'glad_'
'gar'
'fundamentally_'
'fixed_'
'eyes_'
'expanding_'
'everywhere_'
'eva'
'ets_'
'ess_'
'enacted_'
'electronic_'
'el'
'eg'
'discrimination_'
'dependent_'
'definition_'
'daughters_'
'customers_'
'convicted_'
'contractor_'
'component_'
'committees_'
'colleges_'
'ci'
'chosen_'
'ch'
'brand_'
'boost_'
'bombs_'
'bases_'
'bankrupt_'
'associate_'
'ar'
'applied_'
'application_'
'ans_'
'amendments_'
'als_'
'adversaries_'
'administrative_'
'addressing_'
'accepted_'
'ably_'
'] (_'
'Win'
'WHEN_'
'Un'
'UR'
'Together_'
'Three_'
'TY_'
'TA'
'Support_'
'Still_'
'SC'
'Representative_'
'Rep'
'Related_'
'RIGHTS_'
'RE'
'POWER_'
'PAC_'
'Or'
'Ol'
'Mel'
'Mc'
'Los_'
'Lieberman_'
'Lan'
'Ki'
'Karl_'
'JOLTS_'
'IL'
'Harvard_'
'Guccifer_'
'Gre'
'Gra'
'Funds_'
'For'
'Following_'
'Feb_'
'Everything_'
'Em'
'Eisenhower_'
'Dream_'
'Dick_'
'DEPORTED_'
'Child_'
'Ca'
'CEOs_'
'Brownback_'
'Bri'
'Ben_'
'Bashar_'
'Asia_'
'Angeles_'
'An'
'AS'
'?"\10;\10;_'
'94_'
'850_'
'77_'
'68'
'63'
'60'
'57'
'45'
'1996_'
'”, _'
'– _'
'é'
'worthy_'
'widely_'
'west_'
'visits_'
'vetting_'
'verify_'
'vely_'
'unusual_'
'unity_'
'ual_'
'trending_'
'thirds_'
'tend_'
'teams_'
'tactics_'
'survive_'
'surveillance_'
'sub'
'su'
'stores_'
'sto'
'specifics_'
'speaks_'
'somewhere_'
'smoking_'
'skilled_'
'sed_'
'scheme_'
'scene_'
'runs_'
'restriction_'
'represents_'
'regular_'
're'
'ram'
'professionals_'
'presence_'
'powers_'
'plenty_'
'plane_'
'physician_'
'pers'
'permit_'
'partly_'
'paint_'
'overnight_'
'oh_'
'occur_'
'oc'
'obtain_'
'ng'
'negotiated_'
'mothers_'
'monthly_'
'millionaires_'
'meantime_'
'mb'
'lt'
'liberties_'
'liability_'
'leaks_'
'law'
'it'
'io'
'interrogation_'
'installation_'
'initially_'
'incredibly_'
'inaccurate_'
'implemented_'
'hot_'
'helpful_'
'governance_'
'formed_'
'fore'
'forcing_'
'focusing_'
'fle'
'fla'
'filed_'
'fied_'
'fairness_'
'ey_'
'expended_'
'excluding_'
'excited_'
'es'
'equity_'
'entitlements_'
'emphasize_'
'efficiency_'
'ee_'
'economically_'
'earth_'
'duck_'
'dropped_'
'divisions_'
'disc'
'disabilities_'
'demands_'
'delay_'
'defeated_'
'deadline_'
'dan'
'cs_'
'cross_'
'credentials_'
'counsel_'
'contains_'
'contacts_'
'constitution_'
'commanders_'
'coast_'
'classroom_'
'bility_'
'ating_'
'art_'
'arrest_'
'ari'
'adequate_'
'activist_'
'actively_'
'accusations_'
'abroad_'
'\10;\10;- _'
'YEARS_'
'Wi'
'URE_'
'Tribune_'
'Thomas_'
'The'
'Take_'
'THC_'
'Su'
'Shirley_'
'Shahzad_'
'SE_'
'Rich_'
'Ralph_'
'RY_'
'Photo_'
'Peace_'
'Par'
'Pacific_'
'PROGRAM_'
'OR'
'OLD_'
'Nobel_'
'No'
'NY_'
'NS'
'NEW_'
'Motors_'
'Mi'
'Me'
'Marines_'
'MI'
'Louis_'
'Ken_'
'KAINE_'
'Jobs_'
'Irma_'
'Indian_'
'Huckabee_'
'Hey_'
'Hello_'
'Har'
'HAYDEN_'
'Gentlemen_'
'GOVERNMENT_'
'GI'
'GA'
'Fu'
'Flynn_'
'Family_'
'FN'
'Exchange_'
'DUE_'
'DE_'
'DAVID_'
'Cu'
'Credit_'
'Cincinnati_'
'Che'
'Central_'
'CONGRESSIONAL_'
'CASE_'
'Business_'
'BU'
'BOB_'
'Anderson_'
'Afghans_'
'AR_'
'AI'
'?" . _'
'93_'
'85'
'73_'
'65'
'215_'
'1998_'
'1991_'
'15'
'135_'
'120_'
'.)'
'), (_'
'! (_'
' ``(_'
'、_'
'’'
'yed_'
'v'
'usually_'
'urge_'
'unsustainable_'
'uns'
'tt'
'tors_'
'tor'
'testimony_'
'territory_'
'tar'
'subsidy_'
'stuck_'
'structures_'
'striking_'
'stor'
'stocks_'
'stepped_'
'ste'
'stable_'
'sm_'
'select_'
'scope_'
'sad_'
'sacrifices_'
'roughly_'
'retirees_'
'retired_'
'representatives_'
'relationships_'
'rebate_'
'realized_'
'rd'
'rated_'
'quoted_'
'pri'
'port_'
'plays_'
'planet_'
'persons_'
'periods_'
'pathway_'
'passage_'
'park_'
'ow_'
'os_'
'orders_'
'or'
'optimistic_'
'op_'
'op'
'one'
'nu'
'nominees_'
'ncy_'
'mu'
'mobilize_'
'minister_'
'milk_'
'mccain_'
'map_'
'lift_'
'leasing_'
'leaked_'
'lame_'
'ky_'
'judicial_'
'ively_'
'involve_'
'invested_'
'int'
'inspire_'
'inform_'
'indication_'
'ina'
'in'
'impossible_'
'imperative_'
'houses_'
'hing_'
'heroin_'
'hearts_'
'har'
'guilty_'
'guaranteed_'
'ght_'
'generated_'
'gasoline_'
'founding_'
'fortunate_'
'foregoing_'
'foreclosure_'
'flo'
'file_'
'falls_'
'expectations_'
'enterprise_'
'enhanced_'
'economist_'
'dying_'
'driver_'
'domain_'
'dle'
'discussed_'
'dinner_'
'de'
'dam'
'contest_'
'consumption_'
'conspiracy_'
'components_'
'collected_'
'clip_'
'character_'
'caucuses_'
'caps_'
'bu'
'bridges_'
'bridge_'
'brave_'
'bra'
'be'
'award_'
'ati'
'asks_'
'are'
'apps_'
'applies_'
'app'
'ants_'
'allegations_'
'ain_'
'ah_'
'agrees_'
'advisers_'
'acted_'
'abiding_'
'abcnews_'
'Yu'
'William_'
'WOR'
'WITHOUT_'
'WI'
'VE'
'UT'
'UN_'
'UN'
'Tower_'
'Tonight_'
'To'
'Tables_'
'TI'
'TER_'
'TED_'
'Senators_'
'Secret_'
'SUPRA_'
'SHALL_'
'SECRETARY_'
'Rudy_'
'Recovery_'
'RS_'
'Puerto_'
'Pu'
'Provide_'
'Prevention_'
'Page_'
'PRO'
'ONLY_'
'OB'
'Northern_'
'Ni'
'NT'
'ND_'
'Mrs_'
'Midwest_'
'Meanwhile_'
'MORE_'
'MAR'
'Left_'
'Larson_'
'LLC_'
'Kosovo_'
'Ke'
'Joining_'
'Je'
'Israelis_'
'India_'
'Immigration_'
'IR'
'IONS_'
'IA_'
'Hispanic_'
'He'
'HERE_'
'Green_'
'GERGEN_'
'Establish_'
'En_'
'EX_'
'ESS'
'DU'
'DA'
'Corker_'
'Conrad_'
'Comey_'
'Come_'
'Chyron_'
'Cha'
'Capital_'
'CE'
'Brady_'
'Big_'
'Bi'
'Be'
'BECAUSE_'
'Atlantic_'
'Asian_'
'Aleppo_'
'AB'
'74_'
'69_'
'68_'
'64_'
'47'
'36'
'350_'
'3025_'
'26'
'22'
'17'
'166_'
'0875_'
'075_'
'.”\10;\10;\10;\10;_'
'.\10;\10;\10;\10;“_'
'い'
'zone_'
'you'
'ws_'
'writes_'
'workforce_'
'witness_'
'winds_'
'wi'
'wherever_'
'wake_'
'vet'
'us'
'urged_'
'unit_'
'unf'
'unable_'
'ug'
'tre'
'transfers_'
'ti'
'ter'
'tactical_'
'surrounding_'
'super'
'substantially_'
'subsequent_'
'submitted_'
'studying_'
'strategist_'
'sovereign_'
'slower_'
'shocking_'
'serves_'
'sentiment_'
'score_'
'schedule_'
'satisfied_'
'sample_'
'root_'
'rigged_'
'ric'
'representing_'
'repeated_'
'repealing_'
'relatively_'
'ref'
'quit_'
'qui'
'qualifications_'
'prime_'
'pledged_'
'pleased_'
'pit'
'performing_'
'perfectly_'
'peaceful_'
'moon_'
'modest_'
'min'
'lowering_'
'link_'
'limitations_'
'lesson_'
'launch_'
'ko'
'knock_'
'justify_'
'interviews_'
'ingly_'
'ing'
'imposed_'
'ily_'
'id'
'hopefully_'
'helps_'
'hel'
'hedge_'
'handed_'
'guide_'
'greed_'
'ger_'
'friendly_'
'framework_'
'follows_'
'ff_'
'female_'
'fell_'
'exc'
'ex_'
'eti'
'ethnic_'
'ers'
'entity_'
'enc'
'enable_'
'ed'
'ease_'
'divide_'
'discussions_'
'dime_'
'dignity_'
'detailed_'
'destroying_'
'desperately_'
'deserves_'
'derivatives_'
'deployed_'
'dent'
'debating_'
'dealt_'
'deadly_'
'ction_'
'copy_'
'cooperate_'
'contribution_'
'confront_'
'concrete_'
'compensation_'
'ci_'
'chaos_'
'cette_'
'celebrate_'
'causes_'
'camera_'
'busy_'
'burn_'
'billionaires_'
'beg'
'assuming_'
'ap'
'anti'
'al'
'adjust_'
'addiction_'
'acc'
'absolute_'
'\10;\10;"_'
'Wright_'
'Waters_'
'Wa'
'View_'
'Van_'
'Va'
'Unsure_'
'Trust_'
'Tri'
'Tra'
'TIME_'
'TARP_'
'Sean_'
'STA'
'Revenue_'
'Republic_'
'Red_'
'RO'
'RALPH_'
'Pre'
'Perhaps_'
'PO'
'PERSON_'
'PAY'
'Ob'
'OP'
'ND'
'NADER_'
'My'
'Mur'
'Moon_'
'Medical_'
'MO'
'ME_'
'Lives_'
'LAW_'
'Kyl_'
'Ju'
'Ireland_'
'III_'
'H3N2_'
'Google_'
'GREGG_'
'GERSON_'
'GE'
'FL_'
'FEINSTEIN_'
'FE'
'Executive_'
'Es'
'EM'
'Drug_'
'Development_'
'Connecticut_'
'Conference_'
'Columbia_'
'Clark_'
'Chiefs_'
'Charles_'
'Change_'
'Castile_'
'CONG_'
'CK'
'CHA'
'CE_'
'CANDIDATE_'
'Britain_'
'Bolton_'
'Barbara_'
'Baker_'
'Ann_'
'Alabama_'
'Affairs_'
'Abraham_'
'ARY_'
'AIDS_'
'?”\10;\10;_'
': $_'
'92_'
'81'
'77'
'76_'
'75'
'74'
'67'
'34'
'31'
'25'
'216_'
'1993_'
'1990_'
'160_'
'12'
'01'
'00'
'.”_'
' % % % % _'
'を'
'と'
'”'
'yell'
'wo'
'wins_'
'western_'
'wellness_'
'voices_'
'viral_'
'violate_'
'viewed_'
'va'
'ur_'
'upset_'
'unlike_'
'units_'
'unclear_'
'types_'
'treating_'
'toss_'
'tic'
'therein_'
'theater_'
'tested_'
'terrific_'
'suspicion_'
'surprising_'
'summit_'
'suffered_'
'struck_'
'stream_'
'stops_'
'spring_'
'spends_'
'speaker_'
'some'
'skip_'
'sincere_'
'sight_'
'shore_'
'shi'
'shake_'
'sea_'
'screening_'
'scenario_'
'scandal_'
'ry'
'row_'
'routine_'
'rg'
'restructuring_'
'restaurant_'
'resolved_'
'resigned_'
'resident_'
'reluctant_'
'registration_'
'rb'
'ratings_'
'rallies_'
'races_'
'pt'
'promoting_'
'profile_'
'produces_'
'printed_'
'pride_'
'pork_'
'pleasure_'
'ple'
'picking_'
'paragraph_'
'outreach_'
'os'
'orbit_'
'obtained_'
'object_'
'nonprofit_'
'multi_'
'misleading_'
'mer_'
'mer'
'man'
'lying_'
'lo_'
'lle'
'links_'
'license_'
'lia'
'leak_'
'kid_'
'ita'
'ists_'
'ish_'
'ire_'
'injured_'
'ines_'
'ie'
'ical_'
'hometown_'
'holds_'
'hits_'
'heat_'
'headline_'
'hardly_'
'han'
'hack_'
'grand'
'governing_'
'globe_'
'generals_'
'ge'
'fresh_'
'forms_'
'finds_'
'feelings_'
'favorite_'
'farmers_'
'fan_'
'evaluation_'
'ery_'
'ep'
'eo'
'entrepreneurs_'
'enrolled_'
'ene'
'en'
'employ_'
'eligibility_'
'electoral_'
'ei'
'edi'
'dropping_'
'doors_'
'dominated_'
'disturbing_'
'disclose_'
'deportation_'
'demonstration_'
'deli'
'defining_'
'defending_'
'dates_'
'ct_'
'crack_'
'cra'
'correspondent_'
'controlled_'
'cont'
'consideration_'
'conservation_'
'comply_'
'commitments_'
'command_'
'columnist_'
'cliff_'
'cks_'
'churches_'
'char'
'chapter_'
'chain_'
'cetera_'
'ceiling_'
'captured_'
'cal'
'briefly_'
'bombing_'
'blu'
'bears_'
'bat'
'banking_'
'availability_'
'apologized_'
'apartment_'
'analyst_'
'alive_'
'aim_'
'affair_'
'\10;\10;\10;\10;'
'Wil'
'Western_'
'Was'
'WHAT_'
'WASHINGTON_'
'Tell_'
'TX_'
'TT'
'THOSE_'
'TH'
'Strzok_'
'Stephen_'
'Start_'
'Square_'
'Society_'
'Salem_'
'SU'
'Rice_'
'Review_'
'Reform_'
'Real_'
'Re'
'RU'
'RE_'
'RES'
'REICH_'
'Protection_'
'Prize_'
'Philadelphia_'
'Parkland_'
'PROCESS_'
'Organization_'
'ON'
'Neil_'
'Need_'
'NEWS_'
'NC'
'Musharraf_'
'Mullen_'
'Mu'
'Morning_'
'Minority_'
'Mexican_'
'Merkel_'
'Manufacturing_'
'Mal'
'Major_'
'Keep_'
'KE'
'Juan_'
'Job_'
'Jackson_'
'JUDGMENT_'
'High_'
'Having_'
'Han'
'GE_'
'Freedom_'
'Footnote_'
'Fed_'
'EU_'
'EA'
'Du'
'Doctor_'
'Daniel_'
'Dakota_'
'DISTRICT_'
'Cooper_'
'Control_'
'Con'
'Comments_'
'Check_'
'Certainly_'
'Can'
'CT'
'CHIP_'
'CANNOT_'
'Bre'
'Bloomberg_'
'Be_'
'Back_'
'BI'
'BENEFIT_'
'Atlanta_'
'Arkansas_'
'AT'
'API_'
'?"\10;\10;\10;\10;_'
'; ‘_'
'922_'
'88_'
'86'
'83'
'73'
'678_'
'37'
'29'
'1997_'
'196'
'195'
'175_'
'11'
' / _'
'は'
'“'
'za_'
'yer_'
'whites_'
'websites_'
'violations_'
'ved_'
'uri'
'une_'
'undermine_'
'um'
'ue'
'ud'
'ua'
'tz_'
'trusted_'
'truck_'
'trickle_'
'trends_'
'trend_'
'transferee_'
'tracking_'
'toughest_'
'tom'
'threshold_'
'thereof_'
'testify_'
'tank_'
'sworn_'
'swe'
'surface_'
'supposedly_'
'subscribing_'
'structured_'
'strain_'
'steady_'
'statue_'
'statistics_'
'stabilize_'
'squa'
'spokeswoman_'
'spo'
'spe'
'spa'
'sn'
'skeptical_'
'sister_'
'sic_'
'shooter_'
'shocked_'
'sentence_'
'sel'
'securing_'
'scientific_'
'rupt'
'rting_'
'rose_'
'rooms_'
'rog'
'rightly_'
'rib'
'ria'
'rewarded_'
'reve'
'repealed_'
'rental_'
'removal_'
'reminded_'
'rejecting_'
'refusing_'
'refugee_'
'ree'
'recognition_'
'reco'
'receipts_'
'rec'
'rds_'
'pursued_'
'purchasing_'
'purchases_'
'prospect_'
'proper_'
'prisoners_'
'pressing_'
'pregnant_'
'plot_'
'platforms_'
'pipeline_'
'payday_'
'pat'
'partnership_'
'ours_'
'ot'
'ori'
'oo'
'oi'
'officially_'
'ntly_'
'ns'
'news'
'networks_'
'nding_'
'nd'
'narrative_'
'motor_'
'moratorium_'
'mom_'
'models_'
'mixed_'
'migrants_'
'mid_'
'manufactured_'
'managing_'
'mal'
'maintaining_'
'mailing_'
'lit'
'letters_'
'lessons_'
'lessness_'
'ler_'
'ist'
'investigations_'
'invent'
'inspired_'
'inherited_'
'indicates_'
'inauguration_'
'imaging_'
'images_'
'il'
'ide_'
'hopeful_'
'hes_'
'hed_'
'grateful_'
'goodness_'
'gni'
'generous_'
'gan'
'ft'
'freedoms_'
'fre'
'forum_'
'flight_'
'fierce_'
'fe_'
'factories_'
'extremist_'
'explosion_'
'explanation_'
'exp'
'excessive_'
'equivalent_'
'equally_'
'engagement_'
'encouraged_'
'emi'
'ef'
'east_'
'ear'
'ds'
'dramatically_'
'disclosure_'
'discipline_'
'discharges_'
'dialogue_'
'dge'
'deputy_'
'depending_'
'deeper_'
'dd'
'criticizing_'
'critic_'
'crash_'
'countless_'
'costly_'
'consultation_'
'conclusion_'
'cho'
'childhood_'
'cheaper_'
'chan'
'catch_'
'capture_'
'brutal_'
'ble'
'biofuels_'
'bear_'
'bar_'
'attended_'
'ast'
'appointment_'
'anniversary_'
'ang'
'ame'
'alliance_'
'alike_'
'aging_'
'adopted_'
'adopt_'
'ad'
'\10;\10;\10;\10;\10;\10;_'
'Working_'
'WRIGHT_'
'Vous_'
'VA'
'UM'
'Trans'
'Table_'
'TH_'
'TE'
'Statistics_'
'Seth_'
'STATE_'
'SSI'
'SO_'
'SAID_'
'Ru'
'Roberts_'
'Rhode_'
'Reilly_'
'Project_'
'Podesta_'
'Pat_'
'PROVISION_'
'PRESIDENTIAL_'
'PRE'
'PAID_'
'Out_'
'Otherwise_'
'Nucera_'
'Notwithstanding_'
'Newtown_'
'Miss_'
'Mateo_'
'Malia_'
'Majority_'
'Maintenance_'
'Mad'
'MY_'
'MU'
'MICHAEL_'
'MA_'
'MAN_'
'MADE_'
'Lewis_'
'Lead_'
'Le_'
'Kurds_'
'JO'
'INAUDIBLE_'
'Hotline_'
'Hel'
'Hea'
'GROUNDS_'
'Forces_'
'FF'
'FACT_'
'Educational_'
'Ed_'
'EC'
'Construction_'
'Commonwealth_'
'Chuck_'
'Chrysler_'
'Christ_'
'COULD_'
'COMMUNIST_'
'CL'
'CAN_'
'Bra'
'Australia_'
'As'
'App'
'Apollo_'
'Antifa_'
'Ag'
'AU'
'AGAINST_'
'; (_'
'96_'
'900_'
'59'
'50'
'230_'
'20th_'
'1st_'
'194'
'116th_'
'115_'
'.--_'
'.''
'," "_'
', (_'
' –_'
' <> _'
' : _'
'て'
'…'
'zi'
'ze'
'zation_'
'yo'
'yl'
'wisdom_'
'wedding_'
'wea'
'wanting_'
'waged_'
'visa_'
'vis'
'vigorous_'
'usly_'
'unpro'
'unintended_'
'unintelligible_'
'unfunded_'
'une'
'uncertainty_'
'una'
'transparent_'
'topics_'
'tit'
'timeline_'
'ticket_'
'thereon_'
'teach_'
'taught_'
'tactic_'
'ta_'
'ta'
'swa'
'sustained_'
'suspected_'
'successor_'
'stri'
'stra'
'stick_'
'ssion_'
'solid_'
'ske'
'signing_'
'signature_'
'shock_'
'salaries_'
'sacred_'
'rt'
'rs'
'rk'
'right'
'resolutions_'
'remained_'
'regret_'
'register_'
'regards_'
'recreation_'
'recipe_'
'ratio_'
'rapidly_'
'questioning_'
'questioned_'
'pt_'
'provider_'
'prop'
'promising_'
'principal_'
'prevented_'
'pretend_'
'pping_'
'post'
'ple_'
'pic_'
'petition_'
'pe'
'pardon_'
'panels_'
'pace_'
'overwhelming_'
'overs'
'ora'
'opposite_'
'oni'
'ona'
'on'
'okay_'
'obe'
'nis'
'nes_'
'ners_'
'neighborhoods_'
'moral'
'mo'
'missions_'
'midst_'
'mi'
'meaningful_'
'maximum_'
'margin_'
'manufacturers_'
'managed_'
'male_'
'luck_'
'loves_'
'log'
'lined_'
'lic'
'lf'
'legislators_'
'lecture_'
'league_'
'layaway_'
'knocked_'
'kick_'
'je'
'izing_'
'ize_'
'iti'
'ish'
'ise_'
'interviewed_'
'internal_'
'intention_'
'intense_'
'inspections_'
'insight_'
'initiate_'
'ini'
'inf'
'improvement_'
'improved_'
'impression_'
'ignore_'
'ight_'
'if'
'ier_'
'ians_'
'href_'
'hostage_'
'horse_'
'historically_'
'hatred_'
'ham_'
'guest_'
'grandchildren_'
'glo'
'gle'
'ft_'
'free'
'fra'
'founded_'
'foreclosures_'
'firing_'
'fined_'
'fa'
'extremists_'
'extensive_'
'extending_'
'expense_'
'expanded_'
'existence_'
'executives_'
'evil_'
'etic_'
'ern'
'eri'
'ered_'
'ement_'
'em'
'eliminated_'
'dry_'
'drove_'
'division_'
'dictators_'
'diabetes_'
'detainees_'
'des'
'den_'
'cu'
'ct'
'cqrollcall_'
'counterparts_'
'counter'
'corr'
'corner_'
'conventional_'
'conflicts_'
'compare_'
'commerce_'
'color_'
'collecting_'
'clo'
'clarify_'
'cla'
'cing_'
'chairs_'
'ced_'
'cas'
'by'
'browser_'
'boys_'
'bond_'
'blog_'
'blessed_'
'bles_'
'bit'
'beliefs_'
'barely_'
'bar'
'authorize_'
'au'
'aspects_'
'articles_'
'appearance_'
'ani'
'ana'
'ammunition_'
'alongside_'
'aliens_'
'alarm_'
'air'
'ai'
'advocating_'
'adjustment_'
'activists_'
'ace_'
'ac'
'Watch_'
'WHETHER_'
'WE'
'Vote_'
'Too_'
'Though_'
'TS_'
'TR'
'THAN_'
'Sur'
'Supermax_'
'Such_'
'Subcommittee_'
'Staff_'
'Sta'
'Spending_'
'Secondly_'
'Sad'
'STE'
'START_'
'SK'
'SESSIONS_'
'SECTION_'
'SC_'
'Race_'
'Political_'
'POLITICAL_'
'PER'
'PAYMENTS_'
'Orleans_'
'Order_'
'Oath_'
'OH_'
'NSA_'
'NJ_'
'NA'
'Mostly_'
'Missouri_'
'Mil'
'Mikerin_'
'Miami_'
'May'
'Manchester_'
'MIKE_'
'Lisa_'
'Lindsey_'
'Light_'
'League_'
'Latino_'
'LU'
'Katrina_'
'Kaine_'
'KE_'
'Jud'
'Jeb_'
'JOHN_'
'Is'
'IRS_'
'Hollywood_'
'Hawaii_'
'Hamas_'
'Hagel_'
'Gun_'
'Gowdy_'
'Gonzalez_'
'Global_'
'Ei'
'Eastern_'
'Des'
'Delawareans_'
'DING_'
'DID_'
'Current_'
'Create_'
'Conf'
'Colo'
'Campaign_'
'Cal'
'CH_'
'CALL'
'Bret_'
'Border_'
'Booo_'
'Behind_'
'Barr'
'Bannon_'
'BLE_'
'BE'
'Austin_'
'Ahmadinejad_'
'Admiral_'
'Ac'
'ALIENS_'
'?\10;\10;\10;\10;(_'
'</_'
'; $_'
'95'
'89'
'87_'
'8511_'
'63_'
'61_'
'54'
'241_'
'193'
'183_'
'147_'
'13'
'05'
'.’ _'
'.: _'
'. ... _'
'">_'
' —\10;\10;_'
' --_'
' ('
'に'
'し'
'” '
'yours_'
'ya_'
'worries_'
'witnessed_'
'wid'
'weight_'
'weaker_'
'warm_'
'warfare_'
'ware_'
'waited_'
'votre_'
'vol'
'visiting_'
'violated_'
'videos_'
'victim_'
'upstate_'
'unknown_'
'united_'
'uncertain_'
'ultimate_'
'ult'
'ub'
'tting_'
'towns_'
'threatens_'
'th'
'ters_'
'tect'
'techniques_'
'tal_'
'surge'
'suit_'
'stre'
'strange_'
'start'
'spot_'
'spi'
'sounded_'
'soul_'
'son'
'sion_'
'silly_'
'signals_'
'sided_'
'settle_'
'seasonal_'
'savoir_'
'sav'
'san'
'run'
'rie'
'ridiculous_'
'reviewed_'
'ret'
'replied_'
'rep'
'reliable_'
'rein'
'reference_'
'recruit_'
'rai'
'racism_'
'qualify_'
'pur'
'proved_'
'prosperous_'
'propaganda_'
'promotions_'
'prohibited_'
'privately_'
'pres'
'premise_'
'predecessor_'
'prayers_'
'port'
'poli'
'pilot_'
'penny_'
'pay'
'pattern_'
'pan'
'ost'
'organizing_'
'occasions_'
'occasional_'
'nurses_'
'nit'
'music_'
'mou'
'motivated_'
'mosque_'
'mini'
'militarily_'
'march_'
'manner_'
'mandates_'
'mainly_'
'ly'
'lun'
'locker_'
'lobbying_'
'lobby_'
'lli'
'linked_'
'lin_'
'lim'
'lifting_'
'licensee_'
'lb'
'ker_'
'jumped_'
'jet_'
'ir'
'intervention_'
'interference_'
'insisted_'
'inse'
'injuries_'
'ined_'
'implications_'
'ila'
'ically_'
'hunting_'
'hostile_'
'hospitality_'
'hoped_'
'hon'
'hl'
'hey_'
'hero_'
'headlines_'
'handful_'
'gross_'
'greatly_'
'govern_'
'gger'
'frame_'
'founder_'
'foot'
'foolish_'
'figured_'
'fifth_'
'fat'
'factors_'
'extension_'
'experiences_'
'exclusively_'
'exchanges_'
'examined_'
'evolution_'
'eta'
'err'
'era'
'enjoy_'
'ening_'
'encouraging_'
'embassy_'
'element_'
'ee'
'drones_'
'dro'
'drivers_'
'dozen_'
'doubts_'
'distinguished_'
'disastrous_'
'directors_'
'dil'
'dic'
'dessous_'
'demanding_'
'delivery_'
'debunked_'
'custody_'
'curious_'
'critically_'
'craft_'
'cor'
'cooperative_'
'conviction_'
'convert'
'controls_'
'continually_'
'constant_'
'congratulate_'
'conce'
'clu'
'clothing_'
'class'
'ching_'
'ches_'
'ched_'
'chamber_'
'celebrity_'
'burning_'
'bull'
'buck_'
'break'
'bold_'
'beneficiary_'
'bea'
'banned_'
'backed_'
'awful_'
'auto'
'authorization_'
'attempts_'
'ative_'
'ately_'
'assumption_'
'assume_'
'applicable_'
'app_'
'analysts_'
'am'
'allowances_'
'alle'
'alien_'
'aggressively_'
'aged_'
'affects_'
'advisory_'
'adult_'
'adjustments_'
'actors_'
'acquisition_'
'accordance_'
'abused_'
'Yesterday_'
'YE'
'Without_'
'War'
'Wal'
'WA_'
'Vo'
'UK_'
'Top_'
'Terms_'
'Tampa_'
'TN_'
'THOMAS_'
'Sy'
'Stra'
'Ste'
'Star_'
'Spi'
'Spain_'
'Space_'
'Sp'
'Six_'
'Show_'
'Sho'
'Several_'
'Sept_'
'Saudis_'
'SYSTEM_'
'STR'
'STAT_'
'SION_'
'SENATE_'
'Russert_'
'Rico_'
'Retirement_'
'Retail_'
'Ready_'
'Rates_'
'Question_'
'Pri'
'Politico_'
'Pledge_'
'Patriot_'
'PI'
'PAT'
'Out'
'Osama_'
'Okay_'
'OUR_'
'OFF_'
'NO'
'NA_'
'Men'
'Media_'
'Lautenberg_'
'Larry_'
'Ladies_'
'LL_'
'LE'
'LA_'
'Kushner_'
'Ku'
'Krugman_'
'KY_'
'KS_'
'KEENE_'
'Jonathan_'
'Isn_'
'Internal_'
'Industry_'
'Independent_'
'INC'
'Hezbollah_'
'Her'
'Haynes_'
'Hannity_'
'HU'
'HOWEVER_'
'HO'
'HIV_'
'Gl'
'Give_'
'Fact_'
'FORM_'
'FO'
'Environmental_'
'Employment_'
'Earlier_'
'EVEN_'
'ENT_'
'Disc'
'Dayton_'
'Da'
'DECISION_'
'Coons_'
'Conservative_'
'Community_'
'Climate_'
'Cla'
'Citizens_'
'Ci'
'Charlie_'
'CUMMINGS_'
'CR'
'Bullock_'
'Bourdain_'
'Baltimore_'
'BORGER_'
'BA'
'Av'
'Au'
'Armstrong_'
'Apr_'
'Appropriations_'
'Ad'
'Ab'
'ANCE_'
'AF'
'ADF_'
'ACA_'
'? '
':\10;\10;\10;\10;_'
'83_'
'71_'
'66_'
'66'
'650_'
'349_'
'23'
'207'
'1986_'
'185_'
'14'
'101_'
'."\10;\10;"_'
'. [_'
'-- ``(_'
'" -- _'
' @_'
' -\10;\10;_'
'。\10;\10;_'
'— )_'
'wounds_'
'worldwide_'
'whatsoever_'
'welcoming_'
'warehousing_'
'visited_'
'violates_'
'variety_'
'users_'
'upper_'
'unt'
'unl'
'universities_'
'unfairly_'
'underw'
'understandable_'
'tun'
'troubled_'
'treatments_'
'trea'
'transactions_'
'tou'
'tons_'
'thus_'
'thin'
'tely_'
'taxable_'
'targeting_'
'sustainable_'
'supportive_'
'sum_'
'suggestions_'
'successfully_'
'succeeded_'
'subscribe_'
'stating_'
'star'
'stamp_'
'staffers_'
'src_'
'spur_'
'sports_'
'split_'
'specialized_'
'sooner_'
'socialist_'
'socialism_'
'snow'
'slowly_'
'slowing_'
'sli'
'slavery_'
'ski'
'sions_'
'si_'
'shores_'
'shop_'
'shipped_'
'she'
'sharp_'
'ser_'
'sensitive_'
'scenes_'
'scalpel_'
'sacrificed_'
'sa_'
'rts_'
'row'
'roll'
'rock_'
'rl'
'rit'
'ri'
'revolution_'
'revi'
'reta'
'restraint_'
'respected_'
'rent'
'relating_'
'rede'
'realistic_'
'rare_'
'ranks_'
'quicker_'
'que_'
'quarters_'
'profound_'
'productive_'
'probe_'
'primaries_'
'preventing_'
'pressed_'
'posts_'
'posed_'
'polling_'
'permitted_'
'permanently_'
'performed_'
'ped'
'paycheck_'
'partial_'
'owns_'
'ose'
'organizer_'
'ord'
'occurring_'
'nsi'
'now'
'noting_'
'not'
'nk'
'ni_'
'ner'
'nationally_'
'ms'
'moo'
'mn'
'methods_'
'mates_'
'mass'
'manipulation_'
'maker_'
'loose_'
'loophole_'
'litmus_'
'lis'
'ling'
'len'
'leaking_'
'journalism_'
'joins_'
'iv'
'ite'
'irresponsible_'
'invited_'
'investigators_'
'investigated_'
'interrupt_'
'intends_'
'ins_'
'input_'
'ining_'
'indi'
'imprisoned_'
'import'
'ili'
'ign_'
'ify_'
'ib'
'hypothetical_'
'hum'
'here'
'heated_'
'healthcare_'
'grows_'
'gro'
'grit'
'greatness_'
'grandparents_'
'grand_'
'grace_'
'governmental_'
'governed_'
'gli'
'genius_'
'gate'
'gam'
'gained_'
'ga_'
'fur'
'funny_'
'function_'
'fu'
'front'
'foster_'
'forming_'
'foremost_'
'football_'
'followers_'
'flow_'
'fires_'
'fer'
'feed_'
'facilitate_'
'explicitly_'
'excellent_'
'examination_'
'ex'
'establishing_'
'epi'
'empty_'
'emp'
'embraced_'
'eli'
'elect'
'een_'
'eat_'
'eager_'
'drew_'
'drawing_'
'dra'
'distr'
'displayed_'
'display_'
'disgrace_'
'diseases_'
'dirty_'
'devastated_'
'dera'
'departments_'
'dep'
'den'
'demanded_'
'delivering_'
'damaging_'
'customize_'
'cult_'
'crushed_'
'covering_'
'counting_'
'correctly_'
'consult_'
'connect'
'congratulations_'
'conducting_'
'condemned_'
'con_'
'compromises_'
'completed_'
'commercials_'
'command'
'combine_'
'combination_'
'coin_'
'chronic_'
'chi'
'champion_'
'certification_'
'breast_'
'blue_'
'bling_'
'black'
'billionaire_'
'ber'
'ben'
'believing_'
'bas'
'ay'
'aw'
'austerity_'
'ator_'
'ational_'
'assi'
'arm_'
'arguing_'
'applying_'
'appliances_'
'apparent_'
'annually_'
'announcing_'
'ann'
'ament_'
'ais'
'aide_'
'ag'
'ade_'
'addresses_'
'addressed_'
'addict'
'acknowledged_'
'achievement_'
'abo'
'] (“_'
'Ze'
'Young_'
'Ye'
'Wo'
'Wel'
'Weekly_'
'Wait_'
'WR'
'Vladimir_'
'Ve'
'US'
'Turn'
'TRANSCRIPT_'
'TO'
'TITLE_'
'THOMPSON_'
'TERMINATION_'
'Story_'
'Sorry_'
'Shia_'
'Sarkozy_'
'Sam'
'Sale'
'SOU'
'SMITH_'
'SHARES_'
'Ross_'
'Res'
'Reed_'
'REV'
'REA'
'RA_'
'Professional_'
'Personnel_'
'Park_'
'PUBLIC_'
'PH'
'Others_'
'Old_'
'ObamaCare_'
'OUT_'
'Northeast_'
'Nominated_'
'News'
'Nebraska_'
'Mon'
'Mnuchin_'
'Mining_'
'Mid'
'Mer'
'Matt_'
'Marketplace_'
'Mack_'
'MI_'
'MIN'
'MARK_'
'Luther_'
'Leisure_'
'LE_'
'LEGISLATIVE_'
'Kuwait_'
'Kn'
'Kha'
'Keith_'
'Joseph_'
'Jimmy_'
'JUSTICE_'
'Ir'
'Ins'
'IST'
'IP'
'INTO_'
'IC_'
'Houston_'
'Home_'
'Hoboken_'
'Head_'
'Hatch_'
'HR'
'HOST_'
'HI'
'HHS_'
'Gar'
'GROUND_'
'GRAHAM_'
'GRA'
'GO_'
'GILMORE_'
'Francisco_'
'Fla'
'Far'
'Fai'
'FDA_'
'Exactly_'
'Email_'
'Elizabeth_'
'El_'
'EMPLOYMENT_'
'Doug_'
'Data_'
'DES'
'DEP'
'DEN'
'Could_'
'Cold_'
'Cokie_'
'Clause_'
'Charlottesville_'
'Canadian_'
'CP'
'COVERED_'
'CONSTITUTION_'
'CONDUCT_'
'COMMITTEE_'
'Businesses_'
'Brit_'
'Bor'
'Book'
'Bel'
'Beijing_'
'Bas'
'Bahrain_'
'BILITY_'
'BEFORE_'
'BARACK_'
'Avenue_'
'Arts_'
'Arlen_'
'Ap'
'Ann'
'All'
'Against_'
'Academy_'
'AW'
'AMENDMENT_'
'AIN_'
'AFF'
'AD'
'ACTION_'
'ABLE_'
'94'
'93'
'923_'
'92'
'90'
'88'
'84'
'82'
'79_'
'78_'
'750_'
'56_'
'401_'
'255_'
'220_'
'212_'
'21'
'1995_'
'1982_'
'145_'
'140_'
'12th_'
'103_'
'08'
'03'
'0001_'
'.-_'
').'
') - _'
'".'
'! '
' +'
'で'
'…\10;\10;\10;\10;_'
'”_'
'yield_'
'ye'
'yd'
'worship_'
'withdrew_'
'with'
'wished_'
'weakness_'
'water'
'walking_'
'vocal_'
'videotape_'
'vic'
'via'
'verge_'
'vary_'
'val'
'vacuum_'
'vacation_'
'useful_'
'upt'
'upcoming_'
'unstable_'
'unlikely_'
'underlying_'
'unde'
'tune_'
'tter_'
'ts'
'trillions_'
'trigger_'
'trib'
'tin'
'timely_'
'tight_'
'thrown_'
'thro'
'threaten_'
'temporarily_'
'temperament_'
'tch_'
'tch'
'tackling_'
'switch_'
'swi'
'sure'
'substantive_'
'stupid_'
'stabiliz'
'spectrum_'
'spare_'
'solving_'
'soar'
'sing'
'sin_'
'sim'
'shares_'
'settled_'
'sensible_'
'sen_'
'sb'
'rv'
'rp'
'ros'
'robot_'
'rn_'
'ris'
'restoring_'
'responsibly_'
'renewable_'
'ren'
'reminds_'
'remarkable_'
'refuses_'
'refu'
'reflected_'
'recruiting_'
'recommended_'
'recognizing_'
'reb'
'raids_'
'quo_'
'publici'
'profitable_'
'preferred_'
'prefer_'
'predict_'
'preci'
'prayer_'
'pra'
'pp'
'pour_'
'physicians_'
'phi'
'pha'
'pet_'
'pe_'
'patriotism_'
'passes_'
'partisanship_'
'participation_'
'pal'
'overturned_'
'outlook_'
'opposes_'
'opinions_'
'operational_'
'oned_'
'og'
'oftentimes_'
'od'
'northern_'
'nominate_'
'nici'
'nic'
'nds_'
'mus'
'moves_'
'motion_'
'monitoring_'
'momentum_'
'mode'
'mobile_'
'memo_'
'massacre_'
'marks_'
'marked_'
'manipulating_'
'magnitude_'
'ls'
'lowered_'
'logging_'
'liquid'
'li'
'lease_'
'lea'
'lde'
'lately_'
'labeled_'
'jury_'
'ji'
'isolated_'
'ip'
'involving_'
'interpret'
'insti'
'instability_'
'inequality_'
'ignored_'
'identification_'
'ici'
'ice'
'hy'
'hurricane_'
'hunt_'
'households_'
'hosting_'
'historical_'
'hike_'
'hide_'
'hei'
'heart'
'head'
'gulf_'
'greenhouse_'
'gram_'
'graduated_'
'graduate_'
'grabbed_'
'gold_'
'gla'
'gin'
'gifts_'
'gh'
'gg'
'ger'
'genocide_'
'generate_'
'ful'
'frequently_'
'flags_'
'film'
'filing_'
'filibuster_'
'fights_'
'favors_'
'fan'
'factory_'
'factor_'
'expressing_'
'exposure_'
'experiment_'
'expenditures_'
'existed_'
'exemptions_'
'est'
'ert'
'erroneous_'
'erl'
'ering_'
'equipped_'
'ent'
'enrollment_'
'enhance_'
'ened_'
'endstream_'
'ende'
'emo'
'ell_'
'eh'
'editor_'
'ected_'
'eating_'
'dual_'
'drawn_'
'draft_'
'dot'
'diss'
'dispute_'
'dismissed_'
'din'
'depart'
'denying_'
'denial_'
'demon'
'delivered_'
'deductible_'
'declare_'
'decides_'
'da_'
'customer_'
'criteria_'
'cri'
'creator_'
'creative_'
'crack'
'covers_'
'counts_'
'cou'
'corporation_'
'contrary_'
'consist'
'conservatism_'
'cons'
'connect_'
'concerning_'
'complained_'
'committing_'
'cold_'
'closest_'
'cker_'
'cis'
'cells_'
'cares_'
'carbon_'
'calendar_'
'cable_'
'bust'
'brothers_'
'broker'
'broadly_'
'broadcast_'
'bribe'
'breach_'
'birthday_'
'bee'
'battles_'
'barriers_'
'barrier_'
'bargain_'
'bail_'
'ax'
'awfully_'
'automatic_'
'automakers_'
'au_'
'ath'
'assess_'
'assa'
'arena_'
'ard_'
'arc'
'approached_'
'applications_'
'analytics_'
'amongst_'
'alli'
'ali'
'aff'
'advocacy_'
'acres_'
'ack'
'accomplished_'
'abandon_'
'YS_'
'Wikileaks_'
'Wholesale_'
'Wh'
'Webb_'
'WO'
'WHERE_'
'Utah_'
'Unemployment_'
'Udall_'
'Turkey_'
'Tripoli_'
'THINK_'
'THERE_'
'THEM_'
'Sunnis_'
'Sun'
'Stop_'
'Spe'
'Sometimes_'
'Small_'
'Sm'
'Select_'
'Search_'
'SUBS'
'SOUTHERLAND_'
'SELF_'
'SE'
'SB'
'Ren'
'Remarks_'
'Refused_'
'Really_'
'RD'
'Proposals_'
'Prince_'
'Pen'
'Passed_'
'Partners_'
'POST_'
'Nondurable_'
'Non'
'Nicolas_'
'Nic'
'Newsletter_'
'NOTE_'
'NESTOR_'
'NC_'
'Moscow_'
'Miranda_'
'McCa'
'Maryland_'
'MSD_'
'MO_'
'MIS'
'MER'
'MD_'
'Lu'
'Lopez_'
'Listen_'
'Life_'
'Levels_'
'Latinos_'
'Lance_'
'Ky'
'Ko'
'Kim_'
'Kevin_'
'Kelly_'
'Kee'
'Kansas_'
'KI'
'KA'
'Jorge_'
'Jordan_'
'Jeri_'
'Islands_'
'Invalid_'
'Inf'
'Indeed_'
'Increase_'
'Inc_'
'INTER'
'INS'
'INDUSTRY_'
'IE'
'Howard_'
'Hospital_'
'Hi_'
'Henry_'
'HER_'
'HEALTH_'
'HAR'
'Growth_'
'Griffith_'
'Gold'
'German_'
'GEN_'
'Forty_'
'Flake_'
'Fired_'
'Families_'
'FDIC_'
'Exxon_'
'Ex'
'Et'
'Est'
'Ea'
'EVER_'
'ENTRY_'
'ED'
'EARNED_'
'Durable_'
'DM'
'DEA'
'Copyright_'
'Consumer_'
'Constitutional_'
'Company_'
'Commissioner_'
'Col'
'Choice_'
'CU'
'CONDITIONS_'
'COND'
'CLAUSE_'
'CHI'
'CC_'
'Bla'
'Ber'
'BL'
'Australian_'
'Amy_'
'Alexander_'
'Alan_'
'Air'
'Accommodation_'
'ATT'
'ATI'
'AG'
'AA'
'></_'
':\10;\10;\10;\10;'
'98'
'96'
'84_'
'800'
'76'
'67_'
'64'
'56'
'55'
'402_'
'1987_'
'1980_'
'195_'
'180_'
'170_'
'161_'
'156_'
'14th_'
'10;\10;'
'095_'
'065_'
'06'
'04'
'.\10;\10;\u\u\u\10;\10;_'
'." (_'
'. $_'
'***'
'"?\10;\10;_'
'" '
'!!!'
'  _'
' <>_'
' (+_'
'” – _'
'–_'
'è'
'~'
'zz'
'zes_'
'zen'
'ys'
'yb'
'wn_'
'wn'
'wit'
'window_'
'win'
'willingness_'
'wells_'
'wearing_'
'wear_'
'weaken_'
'vy_'
'voice'
'vi'
'vest'
'verification_'
'vani'
'usi'
'ura'
'upward_'
'update_'
'untruths_'
'unta'
'unsafe_'
'unlawful_'
'unite_'
'unfortunate_'
'underp'
'uncomfortable_'
'unc'
'ulate'
'uk'
'ugh'
'uct'
'uc'
'ture_'
'tter'
'tt_'
'troubling_'
'trips_'
'transferor_'
'traditionally_'
'traders_'
'tracked_'
'toys_'
'tour_'
'tip_'
'timetable_'
'thrilled_'
'thi'
'tha'
'technological_'
'tea_'
'tching_'
'taxing_'
'talented_'
'talent_'
'tag_'
'surve'
'suit'
'success'
'substance_'
'subsidize_'
'subprime_'
'struggles_'
'struggled_'
'strip'
'strengthening_'
'stic_'
'stem_'
'stayed_'
'ssed_'
'spreading_'
'spill'
'spect'
'sophisticated_'
'sma'
'slip_'
'sky_'
'shr'
'ship'
'severely_'
'settlement_'
'sets_'
'ser'
'sec'
'script_'
'scans_'
'sake_'
'safely_'
'ron'
'rly_'
'rim'
'returning_'
'retreat_'
'ress_'
'responding_'
'respects_'
'resist'
'resi'
'replacing_'
'replacement_'
'remembering_'
'relieve_'
'relies_'
'relate_'
'rela'
'reh'
'regulate_'
'reflects_'
'recorded_'
'recipients_'
'rece'
'rebates_'
'react_'
'rea'
'rch'
'rap'
'random_'
'radi'
'quits_'
'quietly_'
'quantit'
'qua'
'punishment_'
'pundits_'
'pul'
'protects_'
'prohibits_'
'producer_'
'proceed_'
'privatiz'
'prisons_'
'prisoner_'
'print_'
'preconditions_'
'practical_'
'pounds_'
'pou'
'pot_'
'posting_'
'possess'
'poses_'
'porn_'
'populations_'
'pointing_'
'pm_'
'player_'
'phy_'
'pho'
'pensions_'
'passion_'
'ova'
'outlets_'
'ound'
'organize_'
'orderly_'
'ops_'
'opposing_'
'operated_'
'onal_'
'om_'
'oing_'
'offset_'
'odd_'
'oca'
'nowhere_'
'notify_'
'neutral_'
'nec'
'nder'
'narrow_'
'nal'
'murder'
'mount'
'mor'
'mistaken_'
'midterm_'
'mes_'
'mercury_'
'men'
'membership_'
'meets_'
'marketing_'
'mandated_'
'mali'
'lunch_'
'loving_'
'lor'
'longtime_'
'lock_'
'load_'
'll'
'listed_'
'linking_'
'lights_'
'library_'
'let'
'length_'
'ld_'
'ld'
'lay'
'lawsuit_'
'lam'
'ladies_'
'kin_'
'kicked_'
'kers_'
'ker'
'junk_'
'ject'
'ition_'
'island_'
'irre'
'ir_'
'ipa'
'ior_'
'investigating_'
'invaded_'
'interv'
'inte'
'insult'
'instances_'
'insi'
'index'
'incomp'
'inappropriate_'
'implementation_'
'impacted_'
'imi'
'im'
'illnesses_'
'ile_'
'ii_'
'ign'
'ident'
'ideal_'
'ida'
'ially_'
'hug'
'hr'
'hom'
'herein_'
'her'
'hat_'
'happiness_'
'handled_'
'hai'
'gy'
'gun'
'grounds_'
'graphic_'
'glass_'
'genuinely_'
'genuine_'
'gender_'
'gen_'
'gen'
'ga'
'fundamentals_'
'frustration_'
'format_'
'forg'
'ford_'
'foot_'
'flood_'
'fli'
'financed_'
'ffi'
'fears_'
'fearful_'
'famously_'
'extends_'
'ext'
'expecting_'
'exam'
'ew'
'evi'
'evaluate_'
'esc'
'ents_'
'ens'
'engineering_'
'end'
'enact_'
'ena'
'els_'
'elle'
'educate_'
'editors_'
'editorial_'
'ecti'
'earning_'
'dynamic_'
'duties_'
'dozens_'
'dogs_'
'dly_'
'dive'
'ditch_'
'distance_'
'discourage'
'dio'
'digital_'
'difficulties_'
'differ_'
'dies_'
'dictator_'
'dh'
'determining_'
'detainee_'
'desperate_'
'description_'
'deposit'
'deployment_'
'dent_'
'demonstrations_'
'demonstrated_'
'demonstrate_'
'democracies_'
'dealings_'
'dealer_'
'cy'
'cts_'
'cru'
'cross'
'crises_'
'couples_'
'counsel'
'council_'
'correct'
'coordination_'
'contributors_'
'contacted_'
'condo'
'condemn_'
'conception_'
'conc'
'compound'
'compl'
'competing_'
'compe'
'compassion_'
'comm'
'coll'
'cm'
'clients_'
'cke'
'circle_'
'charter_'
'charitable_'
'chances_'
'challenging_'
'cha'
'cess'
'cer'
'cell'
'cat_'
'burdens_'
'bul'
'bubble_'
'bri'
'breath'
'boots_'
'bomber_'
'blocked_'
'blo'
'blamed_'
'bla'
'bipartisanship_'
'biodiesel_'
'bio'
'bil'
'bickering_'
'babies_'
'ba'
'avoided_'
'autism_'
'attend_'
'att'
'asylum_'
'assist_'
'assertion_'
'ashamed_'
'arrive_'
'arming_'
'argues_'
'ara'
'appoint_'
'anticipate_'
'ant'
'ano'
'amend_'
'ama'
'alliances_'
'alcohol_'
'ains_'
'ained_'
'aimed_'
'aggression_'
'aggregate_'
'age'
'affi'
'acquire_'
'achieved_'
'accessories_'
'absence_'
'abide_'
']\10;\10;\10;\10;_'
'] '
'YW'
'YING_'
'XA'
'We'
'Watergate_'
'WI_'
'WITHIN_'
'Video_'
'Veritas_'
'Val'
'Ur'
'UA'
'Twenty_'
'Test_'
'Ter'
'TJ_'
'TERM'
'TAX_'
'TANCREDO_'
'TAK'
'Stu'
'Springfield_'
'Sources_'
'Sonoma_'
'Somalia_'
'Sol'
'Series_'
'Sen'
'Secretaries_'
'Sea'
'STO'
'SPRADLING_'
'SHIELDS_'
'SESS_'
'SAY_'
'Rogers_'
'Rockefeller_'
'Return_'
'Rest'
'Release_'
'Regulations_'
'Records_'
'Rec'
'Read_'
'Ravi_'
'Rashid_'
'Rangel_'
'Ramone_'
'REC_'
'RECORD_'
'Pres'
'Pearl_'
'Patrol_'
'Paris_'
'Papadopoulos_'
'Pan'
'Palestinians_'
'Pal'
'PURSUANT_'
'PURPOSE_'
'PRES'
'PM_'
'PLOUFFE_'
'PL'
'PDF_'
'Open_'
'OVER_'
'OU'
'OPINION_'
'ONS_'
'OL'
'OA'
'Nu'
'Network_'
'NU'
'NON'
'NG'
'NAACP_'
'Much_'
'Money_'
'McCaul_'
'Marc'
'MM'
'MITT_'
'MEACHAM_'
'MBER_'
'MAN'
'Little_'
'Lilly_'
'Levin_'
'Ledbetter_'
'LEA'
'LD'
'Ken'
'Kat'
'Kar'
'Judiciary_'
'José_'
'JE'
'Ivanka_'
'Inter'
'Ingram_'
'Independents_'
'Income_'
'IVE_'
'ISIL_'
'IRMA'
'IA'
'Hou'
'History_'
'Has_'
'HSA_'
'Grimes_'
'Grant'
'Grand_'
'Glenn_'
'Ghawar_'
'Getty_'
'GA_'
'Fr'
'Flo'
'Fk'
'Fel'
'Federation_'
'FUND_'
'FUNDS_'
'FU'
'FEMALE_'
'FAHEY_'
'East'
'EX'
'ET'
'Donaldson_'
'Doesn_'
'Division_'
'Dis'
'Dep'
'Del'
'Dec_'
'Davis_'
'Dan'
'DY_'
'DED_'
'DAVIS_'
'Cynthia_'
'Cro'
'Crist_'
'Comp'
'Com'
'Colombia_'
'Clintons_'
'Click_'
'Christians_'
'CORRESPONDENT_'
'CONSTITUTIONAL_'
'CONF'
'CONCERN_'
'COMM'
'CMS_'
'CERTAIN_'
'CC'
'Brennan_'
'Boxer_'
'Ben'
'Bank_'
'BRADLEY_'
'BR'
'BEC'
'Aud'
'At'
'Apparently_'
'Any'
'Anti_'
'Among_'
'Ali'
'Aid'
'AZ_'
'ATED_'
'AP'
'AIN'
'ACORN_'
'?"'
'805'
'804'
'802'
'801'
'762_'
'550_'
'335_'
'270_'
'235_'
'1984_'
'191'
'19'
'1429_'
'131'
'118_'
'000'
'.\10;\10;\10;\10;\10;\10;_'
'...'
'.)\10;\10;(_'
',’’ _'
')]_'
'), $_'
''''
'% '
'" (_'
' … _'
' [(_'
' ?'
' >'
' )'
'す'
'う'
'”.\10;\10;_'
'À_'
'zones_'
'youngest_'
'yc'
'wre'
'worrying_'
'wisely_'
'wire'
'winners_'
'wind'
'wic'
'wee'
'wat'
'warrant_'
'vowed_'
'vita'
'viable_'
'vert'
'veness_'
'ven'
'varia'
'var'
'valuable_'
'valid_'
'urging_'
'unre'
'unn'
'unk'
'university_'
'underscore'
'uncovered_'
'uncon'
'ui'
'uer'
'tw'
'tte'
'tries_'
'trash_'
'tos'
'topp'
'tiny_'
'tically_'
'ths_'
'throwing_'
'terribly_'
'terr'
'tension_'
'technically_'
'team'
'teach'
'td'
'tap'
'syn'
'sympathy_'
'suppose_'
'suppliers_'
'sums_'
'suivre_'
'suite_'
'subcommittee_'
'stu'
'stro'
'sting_'
'stimulate_'
'stays_'
'stati'
'state'
'stal'
'spite_'
'spiritual_'
'sp'
'sovereignty_'
'sor'
'solely_'
'slo'
'sleep_'
'sit'
'sisters_'
'sink'
'shutt'
'shrinking_'
'shootings_'
'shing_'
'shameful_'
'seized_'
'segments_'
'scu'
'screenings_'
'screaming_'
'sati'
'sand_'
'sail'
'rti'
'rr'
'rop'
'ro_'
'risk'
'ring'
'rig'
'rh'
'rewards_'
'reviewing_'
'resort_'
'resignation_'
'reserved_'
'reputation_'
'reprehensible_'
'reminder_'
'relative_'
'reinvest'
'rei'
'reflecti'
'reca'
'realiz'
'rc'
'raw'
'rationing_'
'rat'
'rac'
'quotes_'
'protesting_'
'prospective_'
'prohibit_'
'prof'
'presumably_'
'preparing_'
'preparation_'
'preemptive_'
'predecessors_'
'precondition_'
'preach'
'practicing_'
'ppe'
'portray'
'pons'
'pollution_'
'pol'
'plate_'
'plan'
'pin'
'phones_'
'philosophical_'
'phased_'
'pharmaceutical_'
'peacefully_'
'patriots_'
'pain'
'pZ'
'owe'
'outlined_'
'outlays_'
'ou_'
'oth'
'ort'
'ore_'
'operates_'
'ope'
'ome_'
'offices_'
'oci'
'objections_'
'oath_'
'nurse_'
'nte'
'notified_'
'nota'
'noo'
'non'
'nominated_'
'nib'
'ni'
'nge_'
'newly_'
'nes'
'nervous_'
'neighbor_'
'need'
'nded_'
'nb'
'nan'
'mt'
'mos'
'monopoly_'
'modernization_'
'minorities_'
'minor_'
'minded_'
'mind'
'microphone_'
'mes'
'merged_'
'mechanism_'
'managers_'
'malpractice_'
'luxury_'
'lucky_'
'losers_'
'loo'
'locations_'
'lling_'
'lity_'
'lists_'
'leve'
'lesbians_'
'lawyers_'
'lawsuits_'
'lasting_'
'lancée_'
'labs_'
'lM'
'knowingly_'
'knee'
'kl'
'kin'
'ken'
'ka_'
'ires_'
'ion'
'inv'
'integrate'
'insure_'
'instruct'
'installed_'
'insist_'
'ins'
'initiatives_'
'inherit_'
'informed_'
'industrial_'
'inclusive_'
'inadequate_'
'inaction_'
'improvements_'
'implementing_'
'impa'
'ime_'
'ility_'
'iled_'
'ignoring_'
'hosted_'
'homeownership_'
'homeless_'
'hoax_'
'highway_'
'highlight'
'hi_'
'heel'
'hat'
'harmful_'
'hardship_'
'hardest_'
'hackers_'
'ha_'
'gut_'
'grave_'
'grad'
'gor'
'golf_'
'god_'
'giveaways_'
'ghte'
'gentleman_'
'gener'
'gathering_'
'gather_'
'gallons_'
'gallon_'
'futures_'
'funnies_'
'funnel'
'fuels_'
'fortunately_'
'fort'
'formal_'
'forecast'
'fonctionnalité_'
'fol'
'flexibility_'
'flat_'
'fest'
'fear'
'favor'
'farms_'
'extra'
'expression_'
'exploit_'
'explain'
'expertise_'
'exemption_'
'exceptions_'
'exceeds_'
'ethic_'
'etc_'
'errors_'
'ero'
'erg_'
'env'
'entrepreneur'
'entr'
'enth'
'entered_'
'enta'
'enrich_'
'enlist'
'endless_'
'endanger'
'emerged_'
'elop'
'elite_'
'electric_'
'ela'
'edly_'
'edition_'
'earmark_'
'drinking_'
'dragged_'
'draconian_'
'dominant_'
'diversity_'
'distinction_'
'disposal_'
'dism'
'discount'
'disability_'
'die'
'dia'
'developments_'
'detention_'
'design'
'describing_'
'descend'
'der'
'depress'
'depo'
'dependency_'
'demonstrat'
'delaying_'
'dee'
'deciding_'
'dea'
'dangers_'
'cultural_'
'cul'
'cry'
'crus'
'crumbling_'
'crucial_'
'criticize_'
'credible_'
'cours_'
'cop'
'convincing_'
'controlling_'
'contributed_'
'contractors_'
'consume'
'conjunction_'
'confronted_'
'confirmation_'
'con'
'compromised_'
'complain_'
'commissions_'
'comfort'
'come'
'collection_'
'collar_'
'cli'
'cleared_'
'cking_'
'cholera_'
'chill'
'chart'
'characterize'
'challenged_'
'centrifuges_'
'cc'
'candidacy_'
'candid'
'calm_'
'businessman_'
'bureaucracy_'
'brown'
'breakdown_'
'borne_'
'bolster_'
'boil'
'boards_'
'blaming_'
'bitter_'
'bite_'
'bin'
'berg_'
'benefitted_'
'benchmarks_'
'belong_'
'bble'
'batter'
'basics_'
'ball'
'bal'
'backwards_'
'backing_'
'avo'
'avec_'
'automatiquement_'
'automatique_'
'assumed_'
'associates_'
'assigned_'
'art'
'arat'
'apologizing_'
'apo'
'anytime_'
'anticipated_'
'ana_'
'ambitions_'
'alter'
'ak_'
'airports_'
'airplane_'
'aired_'
'af'
'advertisers_'
'advances_'
'admire_'
'activée_'
'accurately_'
'abusive_'
'].'
'ZANDI_'
'Youtube_'
'Youngstown_'
'Yorkers_'
'YOU_'
'YO'
'XE'
'Wr'
'Work'
'Women_'
'Wayne_'
'Water_'
'Wallace_'
'WV_'
'WS'
'WEBB_'
'Use_'
'USE_'
'Trump'
'Truman_'
'Tor'
'Toledo_'
'Tip_'
'Tho'
'Things_'
'Ten'
'Tele'
'Tc_'
'TRIAL_'
'TON_'
'THREE_'
'TER'
'Sus'
'Stories_'
'Sto'
'Stat'
'Star'
'Standard_'
'Springs_'
'Spencer_'
'She'
'Ser'
'Sel'
'Section_'
'Sch'
'Sant'
'Sandy_'
'San'
'Saf'
'STI'
'ST'
'SOME_'
'SEN'
'Rose_'
'Rese'
'Raniere_'
'RTA'
'RR'
'RIN'
'REM'
'RELI'
'REGION_'
'Prop'
'Professor_'
'Portman_'
'Pol'
'Ph'
'Pay'
'Palestinian_'
'PRI'
'PRESS_'
'PO_'
'PLA'
'PBS_'
'PAST_'
'PASS'
'PART_'
'Of'
'OY'
'OUS_'
'OS'
'ODIERNO_'
'OC'
'Nuclear_'
'Nov_'
'Night_'
'Nat'
'NN'
'Murray_'
'Mormon_'
'Mississippi_'
'Min'
'Miller_'
'Members_'
'Melania_'
'Medi_'
'McC'
'Matthew_'
'Mas'
'Market'
'Mark'
'Marco_'
'Manhattan_'
'Manchin_'
'Man'
'Making_'
'Mail_'
'MUST_'
'MONTH_'
'MENTS_'
'MD'
'Lorsque_'
'Lis'
'Lecture_'
'Lea'
'Latin_'
'LLY_'
'LLI'
'LLE'
'LIVE_'
'LAW'
'Koran_'
'Kath'
'K6'
'Jefferson_'
'Jac'
'JA'
'Independence_'
'Impose_'
'IMMIGRATION_'
'ILL'
'IG'
'IES_'
'Hunt'
'Hundreds_'
'Hor'
'Hit'
'Haitian_'
'HEN'
'Gro'
'Globe_'
'Given_'
'Gh'
'Gen_'
'GIN'
'GG'
'Fourth_'
'Five_'
'Fin'
'Fer'
'Fal'
'FS'
'FINAL_'
'End_'
'Egyptian_'
'Ed'
'EV'
'EST_'
'ENTI'
'EL'
'EE'
'Durée_'
'Dun'
'Dow'
'Dobson_'
'Dianne_'
'Dia'
'Dem'
'Dean_'
'Deal_'
'Dallas_'
'DREAM_'
'DR'
'DO_'
'DOES_'
'DL'
'DISC'
'Corporation_'
'Convention_'
'Conve'
'Congresswoman_'
'Congratulations_'
'Commander_'
'Comm'
'Coalition_'
'Clearly_'
'Clar'
'Christopher_'
'Chair_'
'Centers_'
'Castle_'
'Carl'
'Caribbean_'
'Card_'
'Cap_'
'CONTRIBUTOR'
'CONSIDER'
'CIT'
'CHAR'
'CFR_'
'CED_'
'CAR'
'Bur'
'Bro'
'Bowl_'
'Boe'
'Better_'
'Bernanke_'
'Bennett_'
'Below_'
'Beau'
'Bear_'
'Bea'
'Baptist_'
'BARR_'
'Ask_'
'Article_'
'Ahmed_'
'Agriculture_'
'Advisory_'
'Advanced_'
'ASS'
'APP'
'ALIEN_'
'ADMI'
'ACTS_'
'ACTING_'
'AARP_'
': ‘_'
'99_'
'97'
'931_'
'90s_'
'803'
'69'
'501_'
'500'
'460_'
'450_'
'4001_'
'33'
'325_'
'2D_'
'275_'
'2475_'
'228'
'205_'
'202'
'1992_'
'178_'
'165_'
'1425_'
'141_'
'128_'
'0375_'
'0175_'
'0075_'
'.” ('
'.\10;\10;#'
'.?'
'." '
'. ...\10;\10;_'
'. - _'
', ._'
'%. _'
'!\'
' – '
' \u'
' --'
' ()_'
' ($_'
' ! - _'
'る'
'…\10;\10;(_'
'”\10;\10;_'
'’, _'
'––_'
'ée'
'zi_'
'zer_'
'zar_'
'yn'
'ym'
'yle'
'year'
'wood_'
'wishing_'
'wiretap'
'widespread_'
'wel'
'weekly_'
'wedge_'
'wed'
'washed_'
'wand'
'wall'
'waive_'
'vit'
'visi'
'virtue_'
'violating_'
'vin_'
'vin'
'vigorously_'
'vie'
'vibrant_'
'vessel'
'verdict_'
'venti'
'vel'
'veg'
'vas'
'valued_'
'vali'
'vain_'
'va_'
'utili'
'urgent_'
'ups_'
'uphold_'
'unw'
'unsecured_'
'undermin'
'underestimate_'
'und'
'unconstitutional_'
'unchanged_'
'unch'
'ula'
'uel_'
'twenty_'
'ture'
'trust'
'tripl'
'trigger'
'translate_'
'transformed_'
'transform_'
'trafficking_'
'traditions_'
'trade'
'touched_'
'total'
'toe_'
'tle'
'tide_'
'threw_'
'thinkprogress_'
'that'
'tf'
'test'
'tem_'
'telephone_'
'tati'
'tariff'
'tall'
'tai'
'tage_'
'tab'
'swing_'
'sus'
'surveys_'
'suffer_'
'subsistence_'
'subjects_'
'studied_'
'structural_'
'stress_'
'sters_'
'stations_'
'stagna'
'staffer_'
'st'
'ssin'
'sse_'
'spot'
'spin'
'speakers_'
'soil_'
'soft'
'soc'
'sna'
'smo'
'slowest_'
'slogan_'
'sla'
'skin_'
'sk'
'sixth_'
'sis_'
'sin'
'sigh'
'siege_'
'show'
'shoot_'
'shame_'
'sh'
'serv'
'separation_'
'sent'
'sends_'
'seemingly_'
'secret'
'sea'
'scare_'
'sand'
'sampling_'
'salary_'
'rushed_'
'ruin_'
'rse_'
'rred_'
'route_'
'rooting_'
'ront'
'rolled_'
'rip'
'riot'
'revised_'
'reveal_'
'resu'
'restr'
'responsive_'
'respectively_'
'respective_'
'repa'
'reno'
'removing_'
'reme'
'religions_'
'regularly_'
'registr'
'refineries_'
'receives_'
'receipt_'
'rebel_'
'ration_'
'que'
'pursuit_'
'punish_'
'publications_'
'prominent_'
'projections_'
'profiling_'
'prev'
'presided_'
'preserving_'
'preserved_'
'prescriptions_'
'pregnancies_'
'preference_'
'prefer'
'prece'
'praised_'
'praise_'
'possession_'
'pore_'
'por'
'poo'
'pon'
'plu'
'plea_'
'plat'
'petroleum_'
'persecut'
'permission_'
'perceived_'
'pec'
'path'
'participants_'
'parent'
'paper'
'pack'
'ows_'
'owing_'
'ow'
'oversee'
'outset_'
'outs'
'ous'
'organiz'
'orc'
'ong_'
'ol_'
'ok'
'oil'
'oid'
'offense'
'occasionally_'
'obsolete_'
'observed_'
'obs'
'ntra'
'ntion'
'nting_'
'nominating_'
'nl'
'nip'
'nin'
'ngly_'
'nge'
'ney_'
'new'
'nell_'
'necessity_'
'ndo'
'nda'
'nci'
'nced_'
'nav'
'native_'
'nasty_'
'nar'
'mystery_'
'multipl'
'multi'
'motorcycle_'
'motivation_'
'mort'
'mob'
'miss_'
'mise'
'mir'
'miners_'
'mine'
'millionaire_'
'mile_'
'mic'
'mental'
'ment'
'mc'
'mature_'
'mate'
'master_'
'mas'
'manufacturer_'
'manipulate_'
'mandating_'
'mammograms_'
'magazine_'
'mac'
'lve'
'lth'
'lt_'
'lr'
'loud_'
'loses_'
'logic'
'lobbyist_'
'listened_'
'light'
'legitimacy_'
'lean'
'lc'
'late'
'lat'
'lag'
'kno'
'kn'
'kill'
'kickbacks_'
'jurisdiction_'
'journalist_'
'job'
'jets_'
'jam'
'jack'
'ization_'
'iver'
'itions_'
'isolation_'
'irredeemable_'
'introduction_'
'intervene_'
'intern'
'intercept'
'insurgents_'
'instantly_'
'install_'
'inspectors_'
'insp'
'ino'
'info'
'inflammatory_'
'indu'
'indicating_'
'indicate_'
'incon'
'incoming_'
'incidents_'
'impress'
'imports_'
'imported_'
'impl'
'imperfect_'
'impe'
'im_'
'ih'
'identifiable_'
'ide'
'hou'
'hope'
'homosexual'
'hn_'
'hn'
'hitting_'
'hill'
'hidden_'
'height_'
'healing_'
'heal_'
'hea'
'hap'
'handicap'
'habits_'
'hab'
'gus'
'guidelines_'
'gui'
'guards_'
'guard_'
'gt'
'gree'
'gratuities_'
'gonna_'
'gh_'
'get'
'geothermal_'
'geo'
'gent'
'generic_'
'generating_'
'gator'
'garb'
'gan_'
'gaining_'
'fy_'
'functions_'
'frustrated_'
'frie'
'freshman_'
'fragile_'
'formula_'
'formally_'
'forgotten_'
'flying_'
'flu'
'fixes_'
'finest_'
'findings_'
'finances_'
'ffle'
'fed'
'fascinating_'
'far'
'fails_'
'fac'
'eye'
'expose_'
'expo'
'explosive'
'exceptional'
'examples_'
'evident'
'everyday_'
'ever'
'ethical_'
'esse'
'ert_'
'eric'
'erc'
'equality_'
'ensuring_'
'enroll'
'enrich'
'enforceable_'
'endured_'
'encourages_'
'emerge'
'ema'
'elli'
'elit'
'electricity_'
'eho'
'eff'
'eer'
'eds_'
'eat'
'eastern_'
'earthquake_'
'earnings_'
'dule'
'ducti'
'drop'
'dri'
'down'
'dor'
'donation_'
'doctrine_'
'dm'
'divisive_'
'diverse_'
'disrespect'
'disputed_'
'dispo'
'disp'
'disclosed_'
'disagreements_'
'disa'
'directi'
'diplomats_'
'dip'
'dig'
'difficulty_'
'diagnosed_'
'di'
'dging_'
'df'
'design_'
'describes_'
'derive'
'delayed_'
'defended_'
'def'
'deductibles_'
'declining_'
'deca'
'db'
'cybersecurity_'
'cur'
'cult'
'cruel_'
'crowded_'
'creators_'
'creat'
'crashed_'
'cour'
'counties_'
'counterterrorism_'
'copiant_'
'cooperating_'
'cook'
'contenu'
'constructive_'
'constr'
'confused_'
'confi'
'confe'
'conclusions_'
'compiled_'
'compact_'
'communicat'
'commend'
'comb'
'com'
'col'
'cod'
'coach_'
'click_'
'clause_'
'clash_'
'cki'
'cited_'
'chunk_'
'chicken_'
'cherry_'
'chemistry_'
'chair'
'certificate_'
'ceremony_'
'cent'
'cate'
'careless_'
'cardi'
'capt'
'capitalism_'
'cancell'
'button_'
'but'
'bur'
'bullying_'
'budgetary_'
'bt'
'broaden_'
'brink_'
'brea'
'brain'
'bragg'
'bosses_'
'boss_'
'boom_'
'book'
'bonuses_'
'bombshell_'
'bodies_'
'bn_'
'bing_'
'bes'
'ber_'
'benefited_'
'bench_'
'beloved_'
'bell'
'beh'
'beaten_'
'battlefield_'
'barr'
'banning_'
'bankers_'
'balancing_'
'backs'
'awa'
'authoritarian_'
'audit_'
'audit'
'attributed_'
'ates_'
'ate'
'association'
'assistant_'
'assessed_'
'assembl'
'ass'
'aspir'
'arrangement_'
'aris'
'aries_'
'anth'
'ane'
'an'
'ambition_'
'amb'
'alarming_'
'aka_'
'aj'
'ain'
'adoption_'
'adequately_'
'accusing_'
'accessible_'
'ac_'
'abstinence_'
'abandoned_'
'``(_'
'\u\u'
'\_'
'Zi'
'ZX'
'ZW'
'ZE'
'Wow_'
'Wilson_'
'Whoever_'
'Wesley_'
'Wea'
'Watson_'
'WMUR_'
'WH'
'Voters_'
'Vie'
'Veterans_'
'Ver'
'Vatican_'
'VO'
'VERSI'
'VAT_'
'VAN'
'Upon_'
'Unit'
'UT_'
'UNI'
'UL'
'UAE_'
'Tru'
'Transcripts_'
'Tomorrow_'
'ThinkProgress_'
'Tax'
'TU'
'TODAY_'
'TIES_'
'THOUGHT_'
'THESE_'
'THERE'
'THEN_'
'Syrians_'
'Swa'
'Super'
'Stevens_'
'Stay_'
'Stanley_'
'Southern_'
'Sou'
'Soledad_'
'Sim'
'Sestak_'
'Schiff_'
'Sc'
'Says_'
'STATUTORY_'
'STATED_'
'SN'
'SHOULD_'
'SES'
'SENT'
'SCARBOROUGH_'
'S01DE9_'
'Rou'
'Rosenstein_'
'Ros'
'Rob_'
'Resources_'
'Reports_'
'Rein'
'Ref'
'Recently_'
'Recent_'
'Ran'
'RK'
'RG'
'REPORT'
'RELATED_'
'REF'
'REASON_'
'RATIONAL_'
'RATE'
'QUI'
'Powell_'
'Posted_'
'Politique_'
'Plan'
'Place'
'Pew_'
'Pastor_'
'Pass'
'Panama_'
'Paladino_'
'Pakistanis_'
'PUNITIVE_'
'PROPERTY_'
'PROD'
'PP_'
'PF'
'PARTY_'
'Ox'
'Overall_'
'Over'
'Orlando_'
'Opinion_'
'Ope'
'On'
'Oct_'
'Oakland_'
'OT'
'OMB_'
'OD_'
'Ninety_'
'Native_'
'NS_'
'NATIONAL_'
'NATIONALITY_'
'NAT'
'Monthly_'
'Mikulski_'
'Miguel_'
'Medi'
'Marriage_'
'Madison_'
'MT_'
'MOORE_'
'MIGHT_'
'MC'
'Lyn'
'Lord_'
'Long_'
'Local_'
'Loading_'
'Live_'
'Lebanon_'
'Learn_'
'Laws_'
'Later_'
'Lama'
'Lake_'
'LOS'
'LATE'
'Kurdish_'
'Kr'
'Kl'
'Kill'
'Khan_'
'Jindal_'
'Ji'
'Jared_'
'JU'
'Italy_'
'Interview_'
'Inclure_'
'Improve'
'IZ'
'INF'
'INE'
'INDI'
'IND'
'IMPO'
'Hundred_'
'Hos'
'Horner_'
'Hook_'
'Honorable_'
'HillaryClinton_'
'Hen'
'Hayden_'
'Has'
'Hart_'
'Harris_'
'Harkin_'
'Hamilton_'
'Ham'
'Hall'
'HUME_'
'HM'
'HE'
'Greens'
'Gor'
'Goodes_'
'Goldman_'
'Goe'
'Gilmore_'
'Gibbs_'
'Ghana'
'Gaza_'
'Gary_'
'Gang_'
'GR'
'GH_'
'GENERAL_'
'Freddie_'
'Food_'
'Fl'
'Fil'
'Fair_'
'Fact'
'FORE'
'FACTO_'
'Evan'
'Evaluation_'
'Er'
'Equ'
'Ent'
'Employees_'
'Eli'
'Eight_'
'Editor'
'Ec'
'Ear'
'EVERY'
'ERE'
'ENG'
'EG'
'Développeur_'
'Dwight_'
'Dr'
'Deputy_'
'Def'
'Debates_'
'DV'
'DONALD_'
'DC'
'DAA_'
'Cut_'
'Cur'
'Cuban_'
'Cra'
'Cost'
'Corp'
'Cons'
'Congress'
'Commi'
'Comb'
'Club_'
'Cindy_'
'Chan'
'Century_'
'Cau'
'Castro_'
'Cap'
'Call_'
'COST'
'COPY_'
'CONT'
'CONS'
'CNBC_'
'CLASS_'
'CHE'
'CH'
'Broward_'
'Bin'
'Beginning_'
'Becerra_'
'Beach_'
'Base_'
'Baio_'
'BRA'
'BENNETT_'
'BENEFICIARIES_'
'BASH_'
'B1'
'Ass'
'Appro'
'Annual_'
'Allow_'
'Alex_'
'Alb'
'Ajoutez_'
'Aired_'
'Agreement_'
'Acts_'
'Abu_'
'ATIONS_'
'ASAT_'
'ART'
'ARI'
'APPLY_'
'ANNOUNCER_'
'ALT'
'ALSO_'
'ALL'
'ACTIVITY_'
'?\10;\10;'
'?,'
'>\'
'> _'
'; '
':\10;\10;"_'
'99'
'91'
'806'
'691_'
'6079_'
'503_'
'478_'
'360_'
'355_'
'292_'
'242'
'227'
'2125_'
'1989_'
'1950s_'
'171_'
'155_'
'153_'
'148_'
'134_'
'129_'
'124_'
'122_'
'112_'
'110'
'109_'
'0925_'
'0825_'
'0425_'
'0325_'
'0028_'
'0000'
'.”'
'.\10;\10;\10;\10;[_'
'."\10;\10;(_'
'." "_'
'. ‘_'
'. · _'
','" _'
', '_'
')\10;\10;\10;\10;... _'
''\10;\10;_'
'%, _'
' –- _'
' ``_'
' `_'
' .'
' *'
' % % % _'
' "'
'™\10;\10;_'
'™ (_'
'”. _'
'’ '
'ycl'
'yan'
'xim'
'wrong'
'wri'
'wood'
'wl'
'witnesses_'
'wiped_'
'wild_'
'wild'
'wider_'
'where'
'wers_'
'welcomed_'
'wave'
'warriors_'
'wan'
'walk'
'wag'
'vor'
'volunteer'
'viv'
'visas_'
'view'
'versions_'
'versi'
'veni'
'vaca'
'uts_'
'ution_'
'utilize'
'utilisation_'
'ute'
'ust'
'uss'
'uring_'
'urgency_'
'ups'
'uph'
'unwilling_'
'unwa'
'unveil'
'unpre'
'unpa'
'unmask'
'universe_'
'unified_'
'unh'
'unfold'
'undo'
'undergoing_'
'undercover_'
'unbelievable_'
'unacco'
'ular_'
'turb'
'truth'
'troop_'
'tribes_'
'trendolizer_'
'trees_'
'transport'
'trait'
'tr'
'touris'
'tory_'
'tm'
'tle_'
'tis'
'tire'
'tings_'
'tia'
'thor'
'territories_'
'teri'
'tent'
'tenants_'
'tele'
'teen_'
'tal'
'takers_'
'taining_'
'sweeping_'
'swamp_'
'surely_'
'supremacist_'
'sun'
'subp'
'stunn'
'stru'
'stripped_'
'strict'
'stretched_'
'stretch_'
'strengthened_'
'strategies_'
'stone_'
'stolen_'
'stockpile'
'stir'
'stere'
'statute_'
'stars_'
'stark_'
'stall'
'stalemate_'
'ssi'
'sse'
'spu'
'sport_'
'spiral'
'spike'
'speculation_'
'sparked_'
'span_'
'spacecraft_'
'solved_'
'solve'
'sole_'
'sod'
'smarter_'
'slid'
'slammed_'
'sively_'
'sive_'
'sity_'
'simpli'
'significance_'
'side'
'shops_'
'shifting_'
'shelter'
'shee'
'sf'
'servant_'
'self'
'selecting_'
'see'
'sections_'
'searching_'
'script'
'scr'
'scoring_'
'scores_'
'sche'
'scar'
'scam_'
'sancti'
'runner_'
'rou'
'ror_'
'roof_'
'rne'
'rn'
'rivals_'
'risky_'
'rise'
'ripp'
'rifle_'
'rif'
'rical_'
'rf'
'revisi'
'rev'
'retra'
'resulted_'
'restricti'
'restored_'
'respondents_'
'respectful_'
'resource_'
'residual_'
'reside'
'researchers_'
'rescind'
'repayment_'
'reopen_'
'renew'
'reneg'
'remote_'
'reme_'
'remark'
'reluctance_'
'regulating_'
'reg'
'refining_'
'refinery_'
'reduces_'
'recovered_'
'reconcile_'
'reci'
'recess_'
'reass'
'reap'
'readers_'
'reacti'
'rdi'
'rator'
'ratified_'
'rati'
'ranked_'
'rang'
'rain'
'railroad'
'rail_'
'rad'
'rab'
'ra_'
'quen'
'purported_'
'punished_'
'punch'
'pump'
'provocati'
'province_'
'prosper_'
'proposition_'
'properties_'
'prompted_'
'productivity_'
'processing_'
'proceeds_'
'probl'
'print'
'principled_'
'prince_'
'pressures_'
'prescribe'
'pray_'
'ppl'
'pp_'
'pouring_'
'potency_'
'pot'
'porta'
'popul'
'pollster_'
'plo'
'plain_'
'placing_'
'pie'
'picks_'
'phishing_'
'ph'
'pel'
'paths_'
'patent_'
'past'
'passionate_'
'passion'
'partic'
'partially_'
'parks_'
'pag'
'oy'
'overt'
'overseeing_'
'overdose'
'outsourcing_'
'outsourced_'
'outcomes_'
'oun'
'orts_'
'orp'
'ore'
'orate'
'ond'
'omin'
'ological_'
'olic'
'ole'
'oldest_'
'ola'
'offs'
'offensive_'
'offend'
'off'
'oe'
'occupie'
'occasion_'
'observer'
'objection'
'nz'
'ntial_'
'nter'
'notwithstanding_'
'noti'
'notable_'
'north_'
'nomi'
'noise_'
'nn'
'nk_'
'nging_'
'nged_'
'newest_'
'neo'
'neighborhood_'
'negotiation_'
'nearby_'
'ndi'
'nde'
'nct'
'navigat'
'nat'
'nable_'
'multiyear_'
'motivating_'
'mole'
'modify_'
'modified_'
'mm'
'mium'
'mitt'
'milit'
'mil'
'migration_'
'metr'
'meth_'
'memory_'
'mem'
'melt'
'mega'
'medium_'
'medicines_'
'medica'
'measur'
'mbi'
'mba'
'manipulator_'
'mani'
'make'
'mad_'
'lp'
'lose'
'locate_'
'ln'
'lla'
'list'
'lish'
'lin'
'limiting_'
'limitation_'
'liferat'
'lie'
'libertarian'
'leveled_'
'legs_'
'leg_'
'laundering_'
'laughing_'
'lation'
'lar_'
'lar'
'lap'
'lai'
'lack'
'kiss'
'kills_'
'ke'
'justification_'
'joke_'
'jihadist_'
'jecti'
'jb'
'ite_'
'istic_'
'iste'
'iso'
'ism'
'irony_'
'ipl'
'ional'
'invite_'
'invit'
'invasion_'
'invading_'
'invade_'
'into'
'intimidate'
'institutional'
'install'
'insists_'
'inquiry_'
'innovative_'
'injury_'
'initiated_'
'inge'
'inex'
'incent'
'impulse_'
'impro'
'implie'
'implication_'
'imp'
'imo'
'immun'
'imize'
'imagined_'
'iling_'
'ignoran'
'ified_'
'iff'
'iew'
'idl'
'identif'
'identical_'
'ics_'
'ican'
'ht'
'hos'
'horrific_'
'horizon_'
'hood_'
'hme'
'his'
'hint'
'hin'
'highlight_'
'hiding_'
'hes'
'heroes_'
'heartbreaking_'
'healthier_'
'hatchet_'
'hardworking_'
'hanging_'
'handing_'
'han_'
'gridlock_'
'grati'
'graduati'
'grades_'
'gne'
'gn_'
'gn'
'gm'
'gia'
'ght'
'gging_'
'gear'
'furious_'
'fundraiser'
'functioning_'
'fun'
'fs_'
'freely_'
'frau'
'franchise'
'fraction_'
'formerly_'
'formation_'
'forever_'
'flowing_'
'flip_'
'flexible_'
'fits_'
'fitness_'
'firm'
'fire'
'figuring_'
'fie'
'fication_'
'fen'
'feature'
'farm_'
'fans_'
'failures_'
'fabricat'
'express'
'export_'
'experiencing_'
'expects_'
'expecta'
'exhausted_'
'exceed'
'exa'
'evolve'
'eur_'
'eu'
'eth'
'et'
'essi'
'escape'
'erm'
'entrust'
'entities_'
'enthusiasm_'
'ental_'
'ens_'
'enormously_'
'enjoyed_'
'ener'
'endorsing_'
'endorsement_'
'endorse'
'encounter_'
'enberg_'
'enable'
'empti'
'empower_'
'empl'
'emphasis_'
'emotions_'
'emboldened_'
'embo'
'embarrass'
'eloquen'
'elaborate'
'eed_'
'educational_'
'educating_'
'ede'
'doubling_'
'dose_'
'door'
'don'
'dominate_'
'domina'
'documentation_'
'dn'
'dividing_'
'dividends_'
'divi'
'dit'
'distract_'
'distort'
'disse'
'disor'
'dismantl'
'disgust'
'discriminate_'
'discredit_'
'discovery_'
'disco'
'disb'
'disappear'
'disagreement_'
'dir'
'differ'
'dif'
'dicta'
'dge_'
'deter'
'detect'
'designated_'
'dero'
'depression_'
'denounce_'
'dence'
'demo'
'delegates_'
'del'
'defensive_'
'decreased_'
'decl'
'decisive_'
'dated_'
'dashboard_'
'dairy_'
'dH'
'custom'
'cus_'
'cure'
'curb_'
'culpability_'
'cular'
'ctur'
'ctor'
'cting_'
'crown_'
'cron'
'crew_'
'cred'
'coward'
'counted_'
'costing_'
'corps'
'conv'
'contraception_'
'contra'
'continuation_'
'continent_'
'constitut'
'conso'
'considerable_'
'congressmen_'
'congregation_'
'confidential_'
'concludes_'
'complaining_'
'communis'
'communicate_'
'collects_'
'collect'
'clown_'
'cleaning_'
'clea'
'cle_'
'cked_'
'circumstance_'
'choosing_'
'chooses_'
'child'
'cher_'
'checked_'
'cheating_'
'che_'
'channel_'
'chancellor_'
'centr'
'cease_'
'cave'
'catt'
'catastrophe_'
'cat'
'casualties_'
'careers_'
'capital'
'capita_'
'cap'
'campus_'
'cally_'
'calculated_'
'bucks_'
'brighter_'
'brig'
'briefing_'
'briefed_'
'brief_'
'breed'
'breathe_'
'brands_'
'bound_'
'bound'
'bother'
'boat'
'boast'
'blunder_'
'blocking_'
'blank_'
'bizarre_'
'bishop_'
'biological_'
'bind'
'bia'
'betray'
'bers'
'beings_'
'behaviour_'
'beating_'
'bby_'
'bars_'
'band_'
'ban'
'ballo'
'bai'
'ba_'
'ays_'
'awareness_'
'aviation_'
'aver'
'authori'
'attracting_'
'ators_'
'ato'
'asy'
'assured_'
'assurance'
'assessments_'
'assassination_'
'asc'
'articulate'
'arsenal'
'arra'
'ard'
'archive'
'archi'
'aq'
'appreciati'
'appr'
'apparatus_'
'apa'
'ap_'
'anxiety_'
'anonymous_'
'announce_'
'ampl'
'amp'
'alternatives_'
'allegation_'
'alert'
'ale'
'ald'
'airport_'
'affordability_'
'affidavit_'
'affecti'
'ae'
'advised_'
'adversary_'
'admiral'
'adju'
'ade'
'actuarial_'
'accus'
'acco'
'accelerate_'
'Zone_'
'Zh'
'Zero_'
'ZI'
'Yorker_'
'YORK_'
'Wood'
'Witnesses_'
'Within_'
'Wide_'
'Whi'
'West'
'Wat'
'Wasserman_'
'WHITE_'
'WAR'
'Vol'
'Violence_'
'Valley_'
'VING_'
'VIL'
'VIE'
'Up'
'UP_'
'UPDATED_'
'UNL'
'UNION_'
'UNDER'
'UAL'
'Tri_'
'Treaty_'
'Too'
'Through_'
'Than'
'Terror_'
'Teddy_'
'Taxpayers_'
'Tapper_'
'Tancredo_'
'Talking_'
'Talk_'
'TL'
'TITUTIONAL'
'TIONS_'
'THO'
'System_'
'Summ'
'Sudan_'
'Strategy_'
'Str'
'Stephanopoulos_'
'Specifically_'
'Sn'
'Sl'
'Sixt'
'Sir_'
'Seychelles_'
'Senior_'
'Sec_'
'Seattle_'
'Scot'
'Schultz_'
'Say_'
'Sand'
'Safety_'
'SUS'
'SUB'
'SS_'
'SPECIFIC_'
'SPEC'
'SPEAK'
'SH_'
'SHOW'
'SHO'
'SENSE_'
'SENATOR_'
'SED_'
'SAME_'
'SAL'
'Rus'
'Rules_'
'Room_'
'Roll_'
'Roger_'
'Rodriguez_'
'Rock_'
'Rochester_'
'Rifle_'
'Restoration_'
'Respon'
'Regulation_'
'Reduce_'
'Ras'
'Ramos_'
'Rai'
'Rac'
'Rab'
'RUSH_'
'RT'
'RS'
'ROHACK_'
'RN'
'RIS'
'REMAIN'
'REL'
'RC'
'RAMOS_'
'Quit'
'Queen_'
'Qu'
'Qs'
'Qi'
'QUE'
'Program'
'Production_'
'Probably_'
'Print'
'Price_'
'Politifact_'
'Poland_'
'Point_'
'Play'
'Pat'
'Paso_'
'Palmer_'
'PS'
'PROVISIONS_'
'PEN'
'PART'
'PACs_'
'PACKER_'
'PA'
'Op'
'Olympic'
'Officer_'
'Oc'
'ORI'
'ORG'
'OPERATION_'
'OO'
'ONS'
'Nor'
'Neither_'
'NOW_'
'NM_'
'NH_'
'NCE_'
'NASR_'
'Must'
'Mubarak_'
'Move'
'Montana_'
'Mohammed_'
'Mitchell_'
'Millions_'
'Mean'
'Matter_'
'Mana'
'Mah'
'Mag'
'Mae_'
'Mac_'
'MISSOURI_'
'MB'
'MAJORITY_'
'Luc'
'Littleton_'
'Liberal_'
'Letters_'
'Lehman_'
'Leh'
'Lawrence'
'Late'
'Lar'
'LUCE_'
'LT'
'LON'
'LESS_'
'Kremlin_'
'Kissinger_'
'Khur'
'Key'
'Katie_'
'Kas'
'KO'
'Judy_'
'Jews_'
'Jeffrey_'
'Jane'
'JUST_'
'JINDAL_'
'JG'
'Its_'
'Interest'
'Inte'
'Initiative_'
'Indi'
'Immediate'
'Ign'
'Ig'
'IX_'
'IV'
'ITION_'
'INT'
'ID'
'ICATION_'
'Hone'
'Hofstra_'
'Historical'
'High'
'Heights_'
'Heather_'
'Hays_'
'Happy_'
'Hammer_'
'HOLTZ_'
'HELD_'
'HATCH_'
'HAN'
'Gues'
'Gregg_'
'Green'
'Greek_'
'Golden_'
'Gloria_'
'Giffords_'
'Gers'
'Gene'
'Garden_'
'GOVERNOR_'
'GOOLSBEE_'
'GL'
'GARLAND_'
'GAL'
'Fun'
'Forum_'
'Foo'
'Fle'
'Fiscal_'
'Fire_'
'Fight_'
'Fannie_'
'FURTHER_'
'FR'
'FLE'
'FIND'
'FEDERAL_'
'FAR'
'Exp'
'Exe'
'Excellent_'
'Exc'
'Ever_'
'Ethi'
'EpiPen'
'Ens'
'England_'
'Electoral_'
'Eff'
'EY_'
'EXPE'
'EXP'
'EVIDENC'
'EP'
'ENACTMENT_'
'EMPLOYEE'
'EL_'
'EE_'
'EAKIN_'
'Download_'
'Dou'
'Dor'
'Don'
'Direct'
'Diego_'
'Dev'
'Dennis_'
'Dea'
'Date_'
'Darfur_'
'Dar'
'DS'
'DOU'
'DEST'
'DER'
'DCLeaks_'
'DACA_'
'Coverage_'
'Corn'
'Comprehensive_'
'Communist_'
'Command'
'Coburn_'
'Co_'
'Clifford_'
'Circuit_'
'Chu'
'Christianity_'
'Charlotte_'
'Charleston_'
'Chamber_'
'Camp'
'Cain_'
'CSU_'
'COL'
'CN'
'CLARKE_'
'CAL'
'Buffalo_'
'Brother'
'Bronfman_'
'Br'
'Bosnia_'
'Ble'
'Beverly_'
'Bet'
'Bes'
'Bell'
'Bed'
'Becker_'
'Beck_'
'Basically_'
'Based_'
'Barrett_'
'Bal'
'Bain_'
'Assistan'
'Arch'
'Arabian_'
'Arabi'
'Android_'
'America'
'Ame'
'Amaz'
'Aldrin_'
'Albright_'
'Advertisers_'
'Additionally_'
'Addi'
'Adam_'
'Acce'
'ASCE'
'ARD'
'ARBITRARY_'
'AK_'
'ADD'
'? )_'
':\10;\10;'
': )_'
'9I'
'87'
'83D_'
'825_'
'6001_'
'507'
'4th_'
'495_'
'425_'
'384'
'351_'
'342_'
'340_'
'332'
'329_'
'317'
'315_'
'303_'
'302_'
'301_'
'25th_'
'257'
'234_'
'225_'
'210_'
'208'
'201_'
'1973_'
'1970s_'
'1955_'
'190_'
'178'
'1775_'
'172_'
'1675_'
'146_'
'1375_'
'126_'
'1225_'
'119_'
'1175_'
'114_'
'10;\10;_'
'1075_'
'106_'
'102_'
'101'
'100'
'0775_'
'0575_'
'0475_'
'001_'
'.” '
'.’'
'....'
'... (_'
'.''. (_'
'--\10;\10;(_'
'-- (_'
')?'
'' '
'%.'
'". _'
' ’_'
' ...\10;\10;_'
'産'
'な'
'く'
'’.'
'‘'
'zy_'
'zel_'
'yard_'
'wrongdoing_'
'writer_'
'wreck_'
'wound'
'wondered_'
'wishes_'
'winter_'
'whol'
'wheel'
'wer'
'weigh'
'wealthier_'
'weaken'
'waves_'
'waters_'
'wasting_'
'wai'
'vote'
'vitally_'
'visions_'
'visible_'
'virus'
'virtu'
'vili'
'vig'
'viewing_'
'vetoe'
'vend'
'ven_'
'van_'
'vabl'
'utility_'
'uthoriz'
'uta'
'usable_'
'urse'
'urg'
'ured_'
'urban_'
'ural'
'unwise'
'untrue_'
'unsu'
'unify'
'undi'
'underway_'
'undermines_'
'unce'
'ums_'
'umen'
'uls'
'uing_'
'ugly_'
'uff'
'ude'
'uck'
'ually_'
'twi'
'turn'
'turmoil_'
'tta'
'truc'
'trivial_'
'triple_'
'trick'
'travel'
'trauma_'
'transformati'
'transferring_'
'transaction_'
'trader_'
'trac'
'totals_'
'tor_'
'too'
'toll_'
'tl'
'tion'
'tient_'
'thw'
'thugs_'
'thriving_'
'thre'
'thorough_'
'theories_'
'text'
'termination'
'terminat'
'term'
'tensions_'
'teenager'
'tc'
'taxation_'
'tat'
'tas'
'tari'
'tant'
'tank'
'tand'
'tali'
'talents_'
'tail_'
'tac'
'systematically_'
'sympath'
'swo'
'swiftly_'
'suspicious_'
'surro'
'suppress'
'superior_'
'sup'
'sulfur_'
'suggestion_'
'substitute_'
'subsequently_'
'sty'
'stum'
'striv'
'strat'
'strang'
'straightforward_'
'straight'
'storage_'
'stol'
'stin'
'stif'
'stem'
'steelworkers_'
'statu'
'standpoint_'
'stan'
'ssa'
'sr'
'squid_'
'sque'
'sq'
'spre'
'speed'
'speculators_'
'special'
'southwest_'
'sound'
'sonabl'
'solvency_'
'solidarity_'
'soli'
'smoke_'
'sme'
'sm'
'slum'
'slu'
'slows_'
'slots_'
'slipping_'
'slave'
'slaughtered_'
'skyrocketing_'
'skyrocket_'
'ski_'
'skewed_'
'size'
'similar'
'signatures_'
'sibl'
'shower_'
'shortfall'
'shopping_'
'shirt_'
'shifted_'
'sher'
'sharp'
'shareholders_'
'shareholder_'
'shadow_'
'sexually_'
'sex'
'sew'
'serviceme'
'sermon_'
'seq'
'sentence'
'sen'
'selected_'
'seize_'
'secur'
'secondly_'
'searched_'
'scrutin'
'screw'
'scratch'
'scor'
'scientist_'
'scholarships_'
'sch'
'scat'
'scars_'
'scandal'
'scan'
'sca'
'sanctuary_'
'sal_'
'sainthood_'
'rug'
'rubber_'
'rring_'
'rough_'
'roles_'
'rock'
'robust_'
'robo'
'rme'
'river'
'rival_'
'rie_'
'ride_'
'ri_'
'revok'
'reviews_'
'revers'
'revere'
'retro'
'reti'
'retain_'
'retail'
'resurge'
'restrict_'
'restaurants_'
'resse'
'responses_'
'respect'
'resistance_'
'resent'
'resc'
'republican_'
'republic_'
'renew_'
'remember'
'remedy_'
'relian'
'reli'
'rele'
'relatives_'
'reinforce'
'reimbursement'
'regulate'
'regimes_'
'reel'
'redi'
'recruit'
'recall'
'rear_'
'rcu'
'rar'
'ranging_'
'ranc'
'raid_'
'rage_'
'rage'
'rada'
'racists_'
'raci'
'ques'
'qualities_'
'punish'
'pun'
'publisher_'
'publication_'
'pub'
'pu'
'protective_'
'prospe'
'prosecutor'
'prosecution_'
'proportion_'
'promoted_'
'proliferation_'
'prohibiti'
'procla'
'procedure_'
'priv'
'prioritize_'
'pric'
'prevail'
'presents_'
'prep'
'pregnancy_'
'preferences_'
'preempt_'
'predicti'
'predictable_'
'predic'
'precedent_'
'practica'
'pper_'
'pped_'
'powered_'
'posture_'
'position'
'pope_'
'politic'
'policemen_'
'poi'
'plug_'
'pitch_'
'pital'
'pis'
'pioneer'
'pill'
'pile'
'pil'
'pie_'
'phony_'
'pf'
'petty_'
'pes'
'pertain'
'persuade'
'persona'
'persisten'
'perpet'
'permits_'
'peri'
'pent'
'peak'
'peacekeep'
'paychecks_'
'patriotic_'
'part'
'parc'
'param'
'pact_'
'pack_'
'pac'
'ox'
'overwhelmingly_'
'overru'
'overhea'
'ove'
'outrage_'
'outbreak_'
'oust'
'ott'
'otic'
'oti'
'osit'
'orti'
'orn'
'ores'
'oppressi'
'opioids_'
'opi'
'operative_'
'ood_'
'ontin'
'ons'
'onist'
'ong'
'ome'
'olds_'
'ok_'
'ofthe'
'offs_'
'ods_'
'ocean_'
'occur'
'obli'
'num'
'nukes_'
'nst'
'nse'
'nous_'
'notification_'
'normaliz'
'nor'
'nonsense_'
'nonpartisan_'
'nonfarm_'
'nni'
'nner_'
'nna_'
'nies_'
'nf'
'neglect_'
'nati'
'mut'
'murdered_'
'mun'
'mpt'
'mph_'
'moveon_'
'mountain_'
'motorcyclists_'
'motivate'
'morph'
'mone'
'modifi'
'moderate'
'mock'
'mmi'
'mitigat'
'missi'
'misery_'
'misde'
'misch'
'misc'
'minus_'
'ministr'
'mination'
'mills_'
'mid'
'micro'
'meter'
'meta'
'messe'
'mercy_'
'mend'
'mechanisms_'
'measured_'
'mean'
'mb_'
'matche'
'mat'
'master'
'mas_'
'marke'
'mand'
'mam'
'maintained_'
'longstanding_'
'lone_'
'logistic'
'load'
'ller_'
'lities_'
'lit_'
'life'
'lieu'
'lg'
'lets_'
'lethal_'
'lend_'
'lav'
'launching_'
'latter_'
'las'
'lang_'
'landmark_'
'ladders_'
'lacking_'
'lab'
'kson'
'kowski_'
'kley_'
'kitty_'
'kitchen_'
'ki_'
'kh'
'kes_'
'kes'
'justices_'
'judge'
'jp'
'jour'
'ji_'
'jeopard'
'iz'
'iya_'
'ivi'
'ives_'
'itate'
'issuing_'
'ise'
'isan'
'irs_'
'irr'
'iro'
'ionis'
'io_'
'inventory_'
'introduc'
'intr'
'intervene'
'interrupt'
'intentions_'
'inten'
'instituted_'
'inspection_'
'inn'
'ink'
'ingenuity_'
'infringe'
'influential_'
'inflict'
'inde'
'ind'
'incumbents_'
'inconsisten'
'incit'
'inb'
'inaugural_'
'inability_'
'impressive_'
'importer_'
'immunity_'
'illa_'
'ill'
'ifi'
'iest_'
'ien'
'ids_'
'icia'
'hurr'
'hur'
'hungry_'
'hung_'
'humanity_'
'hte'
'hs'
'hri'
'household_'
'hor'
'holy_'
'holi'
'holes_'
'hold'
'hm'
'hing'
'hind'
'heed'
'hb'
'hau'
'hate'
'hash'
'harsh_'
'hard'
'harass'
'hang_'
'hamper'
'ham'
'hall'
'hair_'
'gut'
'gur'
'guided_'
'gues'
'guarantees_'
'ground'
'grip_'
'gress'
'grassroots_'
'graph_'
'grandma_'
'grandfather'
'graduates_'
'grab'
'gr'
'gos'
'goo'
'gold'
'gically_'
'ghts_'
'ghe'
'gest'
'gers_'
'generat'
'gau'
'gati'
'gang_'
'gal'
'gag'
'fueled_'
'fted_'
'fruit'
'frozen_'
'frontier_'
'fri'
'fray'
'founders_'
'foundation'
'foul_'
'fort_'
'forge_'
'foreclose'
'forcefully_'
'fool'
'flesh_'
'fleeing_'
'flawed_'
'flash'
'flag'
'fitt'
'firefighters_'
'finger'
'filling_'
'fic'
'fia'
'fferen'
'ffe'
'felony_'
'federalism_'
'featuring_'
'features_'
'fashioned_'
'farther_'
'fair'
'fa_'
'ey'
'extremism_'
'exter'
'explor'
'exit_'
'exis'
'execute_'
'excitement_'
'exaggerated_'
'evangelical'
'ete'
'estr'
'esting'
'esti'
'ess'
'escalating_'
'esa'
'equip'
'equi'
'equat'
'eous'
'entrance_'
'entirety_'
'ensure'
'enrollees_'
'enjoy'
'engineers_'
'engineer_'
'engage'
'eng'
'enabled_'
'ena_'
'ements_'
'embed'
'eling_'
'elev'
'eke'
'edited_'
'ear_'
'ea_'
'dura'
'dumping_'
'dump'
'drives_'
'drink'
'drea'
'drastically_'
'downs'
'download'
'dou'
'dom'
'dl'
'disruptive_'
'disputes_'
'dispar'
'disenchanted_'
'discriminating_'
'discredited_'
'discre'
'disclos'
'disarm'
'disappeared_'
'disagree'
'disadvantage'
'dire_'
'digit'
'dictatorship_'
'dia_'
'dg'
'developer'
'detr'
'det'
'destin'
'destabilize_'
'desp'
'deserved_'
'ders_'
'deri'
'depreciation_'
'deported_'
'deployments_'
'demonize'
'demographic'
'demagogue'
'demagog'
'dele'
'defl'
'defe'
'default'
'decr'
'declaring_'
'deci'
'debts_'
'debated_'
'dealers_'
'darkness_'
'dar'
'damage'
'dai'
'cyber_'
'cus'
'curi'
'ctic'
'cti'
'cted_'
'crystal_'
'crying_'
'crowds_'
'criminal'
'cree'
'creditors_'
'craft'
'coup'
'correction'
'cornerstone'
'cord'
'coordinat'
'convene'
'contributor_'
'contributing_'
'contradict'
'contracting_'
'continu'
'contin'
'contention_'
'contemplating_'
'consulted_'
'consulta'
'constructed_'
'consci'
'connections_'
'congre'
'confusion_'
'confusing_'
'confirms_'
'confirming_'
'confine'
'cond'
'concessions_'
'concert'
'concede'
'compliment_'
'compli'
'compete'
'compa'
'comp'
'combatant_'
'colon'
'collaps'
'col_'
'coincidence'
'coc'
'coast'
'clue'
'club'
'clinics_'
'clinical_'
'clin'
'cler'
'cleare'
'cleane'
'cket'
'circles_'
'cio'
'ciat'
'cia'
'chu'
'chr'
'chic'
'cheers_'
'chee'
'checker_'
'check'
'cheap_'
'chase'
'charging_'
'characteristic'
'channels_'
'chal'
'cert'
'cera'
'cents_'
'cele'
'cea'
'caution'
'cations_'
'catch'
'casting_'
'carrier_'
'caring_'
'cancel_'
'camp'
'cameras_'
'calculation'
'ca_'
'buyers_'
'burst_'
'burned_'
'bureau_'
'burdened_'
'budd'
'bs_'
'bru'
'bro'
'brigades_'
'brief'
'bre'
'brave'
'branch_'
'boos_'
'boo'
'bonus_'
'bond'
'bombed_'
'bol'
'board'
'blocks_'
'blockquote_'
'blis'
'blin'
'bli'
'bleeding_'
'blacks_'
'bilingual_'
'bigotry_'
'bets_'
'bell_'
'believer'
'bearer_'
'beam_'
'beacon_'
'bc_'
'bath'
'basement_'
'barb'
'bank'
'band'
'bailouts_'
'backbone_'
'b3'
'ay_'
'awarded_'
'autoris'
'author'
'attr'
'atis'
'atic_'
'assum'
'assaulted_'
'artist'
'ars_'
'arrogan'
'arriv'
'arose_'
'architect_'
'arbitrary_'
'appointments_'
'applauded_'
'appealing_'
'appalled_'
'anticipati'
'anno'
'ange'
'ands_'
'anchor_'
'ances_'
'analyzed_'
'amid_'
'ami'
'ame_'
'amas'
'altitude_'
'alter_'
'alt_'
'alo'
'allocated_'
'all'
'alize'
'alis'
'alia'
'ala'
'aint'
'ailable_'
'ah'
'agricultural_'
'aftermath_'
'adver'
'advancing_'
'ado'
'administrations_'
'administrat'
'adapt'
'ada'
'act'
'ack_'
'accounting_'
'accomplishment_'
'accomp'
'accommodat'
'accidental'
'acci'
'accept'
'abus'
'absurd_'
'abandon'
'aba'
'aa'
'\10;\10;© _'
'\10;\10;\u\u\u\'
'ZA'
'Z3'
'YX'
'XI'
'Word'
'Wor'
'Wilkinson_'
'Whatever_'
'Wes'
'Waziristan_'
'Way_'
'Walter_'
'Walt'
'Walmart_'
'Walker_'
'WOOD'
'WHOL'
'WELL_'
'W5'
'Vs_'
'Vil'
'Vet'
'Venezuela'
'Va_'
'VOL'
'VICE_'
'Ut'
'Use'
'Urban_'
'Uni'
'Uncle_'
'USD_'
'UP'
'UNHCR_'
'UNC'
'UE_'
'UDALL_'
'Tw'
'Tutu_'
'Truth_'
'Tim'
'Thousands_'
'Therefore_'
'Test'
'Terrorist'
'Ten_'
'Task_'
'TURN'
'TUCKER_'
'TOR'
'TETT_'
'TAXES_'
'TAKE_'
'Survey_'
'Sul'
'Student'
'Stri'
'Stoneman_'
'Stein'
'Statement_'
'Stanford_'
'Sr'
'Spicer_'
'Spanish_'
'Spa'
'Souther'
'Somewhat_'
'Something_'
'Someone_'
'Somebody_'
'Some'
'Snow'
'Sketch_'
'Sitting_'
'Simple_'
'Shiites_'
'Shel'
'Sheikh_'
'Shaybah_'
'Sh'
'Sevent'
'Sens_'
'Semitic_'
'Sebelius_'
'Sco'
'Sat'
'Sar'
'Sala'
'SUPPO'
'STATUS_'
'SINGLE'
'SINCE_'
'SIM'
'SHERROD_'
'SHELBY_'
'SHA'
'SH'
'SERVE'
'SEP'
'SEE'
'SD_'
'SCIUTTO_'
'SCHEME_'
'Rub'
'Roo'
'Ronan_'
'Rod_'
'Reuters_'
'Responsi'
'Rem'
'Releases_'
'Reg'
'Reco'
'Rather_'
'Rate_'
'REST'
'RESIDENCE_'
'RESERVED_'
'REQUIRE'
'RELE'
'REGULATION_'
'Que'
'Qatar'
'QR'
'Put_'
'Protest'
'Promise_'
'Prior_'
'Princ'
'Politic'
'Poli'
'Plain_'
'Pittsburgh_'
'Pha'
'Pete_'
'Permit_'
'Paulson_'
'Parti'
'Park'
'PR_'
'PROPOS'
'PRACTIC'
'PP'
'PERS'
'PD'
'PALIN'
'Operations_'
'Oma'
'Oklahoma_'
'Oi'
'Official'
'Officers_'
'Off_'
'Odierno_'
'OWN'
'OP_'
'OPEN'
'OPE'
'OMI'
'OFF'
'OF'
'Note_'
'Nig'
'NewsHour_'
'New'
'Neill_'
'Nearly_'
'Nazi_'
'Naz'
'Naval_'
'Natural'
'NV'
'NOR'
'NED_'
'NAR'
'Moynihan_'
'Motor_'
'Mis'
'Mine'
'Microsoft_'
'Meyer_'
'Mess'
'Med'
'Maxine_'
'Mary_'
'Marshall_'
'Marj'
'Manu'
'Maliki_'
'Main'
'Mac'
'MYERS_'
'MPS'
'MON'
'MN_'
'MEMBERSHIP_'
'MCCAUL_'
'MAS'
'MARCUS_'
'Lugar_'
'Low'
'Looking_'
'Loc'
'Lloyd_'
'Lit'
'Lieutenant_'
'Liberals_'
'Leaders_'
'Laur'
'Lat'
'LIZ_'
'LIT'
'LIMIT'
'LID'
'LET'
'LED'
'LEADER_'
'LD_'
'Kor'
'Know_'
'Kla'
'Khalid_'
'Kellogg_'
'Kelley_'
'KG'
'KAN'
'Justi'
'Julie_'
'Julian_'
'Jill_'
'Jeremiah_'
'Jehovah_'
'Jay_'
'JUDICIAL_'
'JL'
'JI'
'Issues_'
'Institution_'
'Insta'
'Inspector_'
'Incre'
'Inaudible_'
'Imm'
'Ii'
'Id'
'IVE'
'ITY_'
'INI'
'INA'
'IMM'
'IM'
'IKULSKI_'
'IED'
'IAL_'
'Humane_'
'Housing_'
'Hotel_'
'Hop'
'Hon'
'Hollen_'
'Hispanics_'
'Hill'
'Hay'
'Haw'
'Hasan_'
'Hard'
'Handgun_'
'Hai'
'Hagee_'
'Hag'
'HOU'
'HOLDING_'
'HI_'
'HILL'
'HAVING_'
'Gua'
'Greg_'
'Gr'
'GovTrack_'
'Good'
'Gergen_'
'Genera'
'Gat'
'Gam'
'Gallup_'
'GUTMAN_'
'GHT'
'GHO'
'GF'
'Fri'
'Fran'
'Fou'
'Fm'
'File'
'Fee'
'Fat'
'FY_'
'FUL_'
'FREELAND_'
'FREE'
'FN1'
'FM'
'FL'
'F7_'
'Ext'
'Expand'
'Eve'
'Erin_'
'Eri'
'Emi'
'Eight'
'Egyptians_'
'EXC'
'EXA'
'EN_'
'ENT'
'ENE'
'ELI'
'EGTRRA_'
'EARN'
'Dur'
'Div'
'Distribution_'
'Din'
'Deficit'
'Declaration_'
'Dec'
'Deb'
'Daniels_'
'Dan_'
'DT'
'DS_'
'DOJ_'
'DN'
'DISABILITY_'
'DIRECTOR_'
'DHS_'
'DEPRIV'
'Cyrus_'
'Cutter_'
'Cross'
'Crime_'
'Cri'
'Creati'
'Coun'
'Corzine_'
'Cop'
'Conway_'
'Cont'
'Confederate_'
'Committees_'
'Colin_'
'Coa'
'Clint'
'Clinic_'
'Clear'
'Cl'
'Cham'
'Centre_'
'Cath'
'Casey_'
'Cas'
'Carl_'
'Capri'
'Cambridge_'
'Cam'
'Call'
'CS'
'CROSSFIRE_'
'CRI'
'CORKER_'
'CONV'
'CONCEPT'
'COM_'
'CF_'
'CENT'
'CALIFORNIA_'
'Building_'
'Bryan_'
'Brussels_'
'Brook'
'Bradley_'
'Bon'
'Blitzer_'
'Bil'
'Between_'
'Berm'
'Benjamin_'
'Benefits_'
'Begi'
'Barr_'
'Ban'
'Baghdadi_'
'Bad'
'Bachmann_'
'BS'
'BRI'
'BOETTCHER_'
'BLA'
'BILLS_'
'BER'
'BECOME'
'BASED_'
'Ave'
'Austan_'
'Assembly_'
'Ash'
'Arthur_'
'Area_'
'Archives_'
'Anchor'
'Amnesty_'
'Alternative_'
'Almost_'
'Allred_'
'Allison_'
'Alliance_'
'Allegiance_'
'Ali_'
'Aircraft_'
'Af'
'Address_'
'Ad_'
'Access_'
'ATOR'
'ART_'
'ANN'
'ANCHOR_'
'ANALYST_'
'AMERICAN_'
'AK'
'ADV'
'ACCRUED_'
'AAA_'
'>\10;\10;_'
'<'
';"'
':\\'
': "'
'9t'
'9k'
'831'
'80s_'
'70th_'
'6t'
'60s_'
'571'
'50s_'
'4U'
'465_'
'375_'
'372'
'3575_'
'347_'
'345_'
'333_'
'323_'
'320_'
'319_'
'2nd_'
'280_'
'271_'
'266'
'251_'
'239_'
'2375_'
'2325_'
'2225_'
'219_'
'217_'
'213_'
'2022_'
'1A'
'198_'
'1980s_'
'197_'
'1975_'
'1625_'
'159_'
'158_'
'157_'
'1525_'
'144_'
'137_'
'132_'
'111_'
'10;\10;\10;\10;'
'108_'
'1025_'
'09'
'055_'
'02'
'/\'
'/ _'
'.”\10;\10;'
'.” “_'
'.’’\10;\10;_'
'.\10;\10;\10;\10;• _'
'.\10;\10;\10;\10;\10;\10;'
'.) '
'."'
'. #_'
'- '
',\'
',' _'
'**'
')\10;\10;\10;\10;'
'))'
'%\10;\10;_'
'"? _'
'"><'
'">'
'!”\10;\10;_'
' –\10;\10;'
' ...'
' -– _'
' --\10;\10;\10;\10;(_'
' -- "_'
' (.'
' (-_'
'れ'
'ら'
'っ'
'ため'
'た'
'しま'
'が'
'• “'
'• _'
'” (_'
'’\10;\10;_'
'ès_'
''
'| _'
'zzl'
'zo'
'ywa'
'yt'
'yn_'
'ymo'
'ye_'
'xt'
'xp'
'xes_'
'xe'
'wrath_'
'won'
'withdrawn_'
'withd'
'will'
'who'
'whistle'
'whenever_'
'what'
'weed'
'wed_'
'waterboarding_'
'washing'
'warrants_'
'warns_'
'warn_'
'warhead'
'waive'
'vy'
'vs_'
'volumes_'
'volatil'
'vol_'
'victori'
'vict'
'vicious'
'vers_'
'verified_'
'venue'
'venture'
'vent_'
'vel_'
'vei'
'vb'
'vative'
'vant'
'vaccinated_'
'vac'
'utter'
'utt'
'ute_'
'ust_'
'use'
'usage_'
'urn_'
'urer'
'uprising'
'upheld_'
'upgraded_'
'unusually_'
'untruth_'
'unsuccessful_'
'unse'
'unrea'
'unma'
'unleash'
'uniquely_'
'unilaterally_'
'uniform'
'unfolding_'
'unelected_'
'underground_'
'underg'
'und_'
'unclassified_'
'unbo'
'unb'
'unav'
'ulo'
'ule'
'ugh_'
'uch'
'uate'
'té'
'tweeting_'
'tweak'
'tut'
'turnout'
'turbines_'
'tur'
'tunnel'
'tude_'
'ttle_'
'tted_'
'trustee'
'trickl'
'treaties_'
'treasury_'
'train'
'tragedies_'
'trace'
'toxic_'
'towe'
'tout'
'torture'
'tort_'
'ton'
'toleran'
'tine'
'tim'
'tight'
'tier'
'tie_'
'ticke'
'tical'
'thrive_'
'thr'
'this'
'thir'
'therea'
'ther_'
'theo'
'theme_'
'them'
'thank'
'tg'
'terrified_'
'tered_'
'tenure_'
'tendency_'
'tempting_'
'temper_'
'temper'
'tem'
'techn'
'tapped_'
'tap_'
'tamper'
'tame'
'tail'
'tag'
'tackle'
'table'
'symptoms_'
'symbol'
'sweep_'
'suspension_'
'suspects_'
'surprisingly_'
'supervis'
'superpower_'
'suns'
'sue_'
'sudden_'
'suburb'
'subsidi'
'subse'
'submit'
'subject'
'subito_'
'subco'
'strength'
'stream'
'strap'
'strain'
'stored_'
'ston_'
'sticker'
'stewards_'
'steer'
'steal_'
'steadily_'
'stakeholders_'
'stagger'
'stage'
'stabilized_'
'ssions_'
'ssione'
'squarely_'
'spying_'
'spy_'
'spokesperson_'
'sour'
'solicit'
'soft_'
'smear'
'slowed_'
'slippe'
'slight_'
'sle'
'slaughter'
'slash_'
'slan'
'skipped_'
'skin'
'sincerely_'
'simplify_'
'sights_'
'sicke'
'shy_'
'shrink_'
'showdown_'
'shouted_'
'should'
'shorte'
'shoot'
'shoes_'
'shine'
'shaped_'
'shaking_'
'shadows_'
'sevent'
'servers_'
'serial_'
'seque'
'separated_'
'semiautomatic_'
'sem'
'seller'
'seek'
'secured_'
'sectors_'
'searches_'
'screen'
'scrap'
'school'
'scen'
'scared_'
'scape'
'scal'
'satisfy_'
'sanit'
'sanc'
'safeguard_'
'safe'
'sadd'
'sack_'
'sab'
'rush'
'rus'
'rte'
'rta'
'rsel'
'rounds_'
'rooted_'
'roo'
'romis'
'romantic_'
'rocket_'
'rob'
'rni'
'rma'
'rm_'
'riso'
'rin'
'riminate'
'ries_'
'ride'
'rid'
'rian_'
'revolution'
'revelation_'
'revealing_'
'rett_'
'restoration_'
'resta'
'responders_'
'resona'
'reso'
'resettlement_'
'reservations_'
'resembl'
'rer_'
'repudiat'
'reproduc'
'reprocess'
'representation_'
'repre'
'repla'
'repeating_'
'repayments_'
'repair'
'renewing_'
'remo'
'remi'
'remedies_'
'remainder_'
'relying_'
'relocat'
'reinstate'
'rein_'
'rehabilitation_'
'register'
'rega'
'refr'
'reforming_'
'reformer_'
'refo'
'refinance_'
'refill'
'referendum_'
'references_'
'reelection_'
'redeploy'
'recti'
'recovering_'
'recou'
'recording_'
'record'
'recons'
'recommend_'
'reck'
'recalls_'
'reauthorize'
'reat'
'reasonably_'
'reali'
'realDonaldTrump_'
'real'
'readiness_'
'reader_'
'react'
'rav'
'rator_'
'ras'
'rarely_'
'rapp'
'rant_'
'rampa'
'rall'
'ral_'
'ral'
'raini'
'rain_'
'r7'
'question'
'qqa'
'puzzl'
'pure'
'purchaser'
'pulat'
'publish_'
'pts_'
'ption_'
'psycho'
'ps'
'prudent'
'prov'
'protestors_'
'prosecuti'
'promote'
'projection_'
'profit'
'producers_'
'process'
'proceeding'
'prize'
'preten'
'presume'
'preservation_'
'premature_'
'predictions_'
'predicted_'
'predatory_'
'predator'
'pred'
'precise_'
'preceded_'
'praying_'
'practiced_'
'pr'
'power'
'posit'
'ports_'
'pools_'
'pond'
'polar'
'pol_'
'poison'
'plummet'
'plots_'
'pled_'
'plead'
'plausible_'
'plainly_'
'plagu'
'piro_'
'pip'
'piggy_'
'physi'
'photos_'
'philosophies_'
'philosophically_'
'pher'
'phenomen'
'pharmac'
'pg'
'petro'
'periodically_'
'perf'
'perception_'
'percentages_'
'perce'
'peoples_'
'pediatric'
'peanut'
'pea'
'pdf_'
'patrol'
'patriot_'
'passport'
'passive_'
'passengers_'
'partnering_'
'participate'
'parliamentary_'
'parliament_'
'panic_'
'pall'
'pal_'
'painful_'
'pad'
'packages_'
'pa_'
'oxi'
'owed_'
'overtur'
'overthrow_'
'overreac'
'overpaying_'
'overlook'
'overhaul_'
'overc'
'outsider'
'outp'
'outlet_'
'ough_'
'ote_'
'ortion_'
'orted_'
'originat'
'oria'
'org'
'ordnance_'
'orati'
'oppressive_'
'opp'
'oph'
'operatives_'
'oper'
'ool'
'oo_'
'ont'
'ono'
'onia'
'oner_'
'onat'
'onary_'
'ols_'
'ology_'
'oke_'
'oke'
'offended_'
'ock'
'occupation_'
'obsess'
'objected_'
'oad'
'oa'
'nuts_'
'nut_'
'null'
'nua'
'ntless'
'nted_'
'nstr'
'np'
'nov'
'nose_'
'northwest'
'nons'
'nonlicense'
'noi'
'nod'
'nke'
'nings_'
'nightmare_'
'night'
'nick'
'nic_'
'nia'
'neu'
'nent_'
'nent'
'nel_'
'nel'
'negligen'
'negat'
'nationals_'
'nationalist'
'nationali'
'nas'
'narrow'
'namely_'
'nam'
'naive_'
'nail'
'nai'
'nag'
'nad'
'myth_'
'murderers_'
'mpl'
'mper'
'mouth_'
'motorist'
'motiv'
'mot'
'mons_'
'mono'
'monetar'
'mom'
'moderati'
'mobility_'
'moa'
'mmer_'
'mmed_'
'ml'
'mize'
'mix_'
'mistr'
'miss'
'misma'
'misi'
'ministry_'
'minat'
'mill'
'mileage_'
'migra'
'metrics_'
'metal_'
'mere_'
'merc'
'memories_'
'median_'
'medi'
'meanwhile_'
'meal'
'mea'
'mble_'
'mber'
'maximize_'
'mation'
'match'
'marking_'
'marginal_'
'march'
'manufacture_'
'mantle_'
'mana'
'malicious_'
'mail'
'magnificent_'
'mF'
'lys'
'lude'
'loyal_'
'lows'
'lous'
'loud'
'loop_'
'longest_'
'long'
'logi'
'lod'
'locked_'
'lobb'
'loa'
'lm'
'llow'
'lled_'
'lla_'
'lk'
'lized_'
'lize_'
'liz'
'livel'
'liv'
'literature_'
'lining_'
'likelihood_'
'like'
'lifted_'
'lifetimes_'
'lid'
'licti'
'libe'
'liar'
'liab'
'li_'
'lexi'
'lesser_'
'less'
'lent'
'lengthy_'
'leng'
'legislate_'
'legalization_'
'leas'
'leap_'
'leaning_'
'lawful'
'lau'
'last'
'lapse'
'landscape'
'landings_'
'lake'
'lab_'
'kins'
'kindergart'
'kind'
'kel'
'kee'
'just'
'jun'
'joy_'
'journal'
'jersey'
'ja_'
'itor'
'itive'
'itin'
'ited_'
'itan'
'ison'
'ironically_'
'ioned_'
'ional_'
'invitation_'
'investor_'
'inum_'
'interventions_'
'internally_'
'interject_'
'interior_'
'interfering_'
'intention'
'intensi'
'intact_'
'insurgency_'
'insula'
'instruments_'
'instructions_'
'inspiring_'
'inspiration_'
'inspector_'
'inquir'
'injustice_'
'inject'
'init'
'information'
'informa'
'infectio'
'infam'
'inevitable_'
'inefficien'
'individually_'
'indisp'
'indictment_'
'indecent_'
'incu'
'incorrect'
'incorporate'
'inclusi'
'inciden'
'inch_'
'incest_'
'inat'
'inal'
'ina_'
'impuls'
'impos'
'implo'
'implicit'
'impeachment_'
'impeach'
'impact'
'immi'
'imeter_'
'imagination'
'imag'
'ille'
'ilit'
'iguous_'
'igne'
'ights_'
'igh_'
'ige'
'ifications_'
'ifica'
'ient'
'idio'
'ideolog'
'iden'
'icon'
'ick_'
'ication_'
'icate'
'ible_'
'iation_'
'iPad'
'hypocri'
'hybrid_'
'hurts_'
'hunter'
'hun'
'humility_'
'humble'
'html_'
'hrine'
'hot'
'hosts_'
'hospice_'
'horses_'
'horr'
'hore'
'honorable_'
'honesty_'
'holdings_'
'holders_'
'hol'
'ho_'
'hink'
'hil'
'hikes_'
'highways_'
'hia'
'heri'
'herent_'
'hem_'
'heavens_'
'heaven_'
'heat'
'heartland_'
'have'
'haunt'
'hated_'
'harsh'
'harmed_'
'harden'
'hange'
'handgun_'
'hag'
'hacker_'
'gula'
'guis'
'gue_'
'gru'
'groceries_'
'grief_'
'greeting_'
'greeted_'
'graph'
'gradually_'
'grac'
'gma'
'globalist_'
'gl'
'give'
'gie'
'genetic_'
'gend'
'gee_'
'gate_'
'fying_'
'fur_'
'funeral_'
'functional'
'fulfill_'
'fulfill'
'fuck'
'frustrati'
'fro'
'friendship_'
'frequen'
'fraudulent_'
'fortune_'
'formula'
'forged_'
'forbid_'
'fool_'
'fond'
'fold'
'flux_'
'flower'
'flourish'
'flooding_'
'flood'
'flie'
'flames_'
'fiss'
'fiscally_'
'first'
'firefight'
'fina'
'fin'
'filth'
'filter'
'filibuster'
'fili'
'files_'
'fift'
'fici'
'fica'
'ffick'
'fet'
'felons_'
'fel'
'feeding_'
'federally_'
'federa'
'fate_'
'fatalities_'
'faste'
'fantastic'
'fantas'
'fam'
'fal'
'faiths_'
'fad'
'factually_'
'facto'
'fact'
'fab'
'ez'
'extraordinarily_'
'exten'
'explore_'
'explo'
'explicit_'
'expired_'
'experienced_'
'expen'
'expeditio'
'exh'
'exercised_'
'exercis'
'excluded_'
'excerpt_'
'ew_'
'evol'
'eves_'
'even'
'evaluated_'
'ette'
'ett'
'etr'
'eto'
'estimati'
'establishments_'
'erv'
'erra'
'erp'
'eriz'
'erg'
'erect'
'erati'
'epidemic_'
'envoy_'
'ento'
'ently_'
'enter'
'ensa'
'enlisted_'
'enforced_'
'enforc'
'energize'
'ency_'
'encou'
'emergencies_'
'embryo'
'embracing_'
'embe'
'embark'
'embargo_'
'emailed_'
'els'
'elevated_'
'electro'
'electorate_'
'eld'
'elb'
'educators_'
'ect_'
'ect'
'economies_'
'echoe'
'eav'
'earners_'
'eag'
'eBay_'
'dy'
'dw'
'duc'
'dual'
'dt'
'dru'
'drills_'
'drastic_'
'drain'
'dors'
'donated_'
'doc_'
'dium'
'distribution'
'distribute'
'distracti'
'disrupt_'
'displace'
'dismiss_'
'disin'
'disgraceful_'
'disciplin'
'disas'
'disappointing_'
'diplomat'
'diminishing_'
'dig_'
'devoti'
'devastati'
'dev'
'deterre'
'determines_'
'deter_'
'destructive_'
'desk_'
'desired_'
'designate'
'deregulat'
'depriv'
'deposits_'
'deplorables_'
'denouncing_'
'denounced_'
'deni'
'dem'
'dell_'
'delin'
'delete_'
'delegation_'
'deh'
'deg'
'defin'
'defie'
'defian'
'decreas'
'decorated_'
'declaration'
'decepti'
'decency_'
'dece'
'deba'
'deadliest_'
'deadl'
'ddl'
'dati'
'darke'
'dal'
'dab'
'cz'
'cynical_'
'cycl'
'cut'
'curve_'
'curricul'
'cup'
'culminat'
'ctions_'
'crossing_'
'crossed_'
'crop'
'critique'
'criptions_'
'creativity_'
'courageous_'
'counterin'
'cos'
'corresponden'
'cops_'
'cope_'
'cool'
'contro'
'contract'
'contingency_'
'contests_'
'contents_'
'contender_'
'containment_'
'consulte'
'construed_'
'conspir'
'considera'
'consequent'
'consecutive_'
'conscience_'
'confrontation'
'confessed_'
'conf'
'condone_'
'conde'
'conclude_'
'concentrate'
'computed_'
'composition_'
'complaint'
'competitors_'
'compensate_'
'compensat'
'commonsense_'
'common'
'commissioner_'
'commentary_'
'commenta'
'commence'
'column_'
'color'
'collapsed_'
'collaboration_'
'collaborati'
'colla'
'coho'
'cohesi'
'clot'
'cliqu'
'climb_'
'climb'
'clearing_'
'cleansing_'
'clarity_'
'ckma'
'ckla'
'cj'
'civiliz'
'civic_'
'citing_'
'cite_'
'cit'
'circulat'
'circu'
'cipa'
'cine'
'cinati'
'cil'
'cigarette'
'chur'
'choc'
'chet'
'cherish_'
'checkers_'
'chea'
'chat'
'chart_'
'change'
'champ'
'certifie'
'centerpiece_'
'center'
'cent_'
'censor'
'catal'
'casual_'
'cart'
'carr'
'cared_'
'car'
'cannibal'
'calamity_'
'cabinet_'
'cab'
'butter'
'bust_'
'business'
'bury_'
'bureaucrats_'
'bureaucra'
'burdening_'
'bundl'
'bun'
'buck'
'bs'
'brush'
'broadband_'
'broa'
'brilliant_'
'bright_'
'breakthroughs_'
'branding_'
'branches_'
'bracket_'
'boundaries_'
'borrowed_'
'boring_'
'boot'
'booste'
'boom'
'bon_'
'blunt_'
'bluff_'
'blueprint_'
'blowing_'
'bloody_'
'blood'
'blogger_'
'bled_'
'blast_'
'birthright_'
'birth'
'biograph'
'billi'
'bilateral_'
'big'
'bett'
'beside'
'bert_'
'beneficial_'
'beneath_'
'bend_'
'behave'
'beaut'
'beach_'
'battleground_'
'battle'
'battalion'
'bathroom_'
'basketball_'
'bans_'
'bankrolling_'
'bananas_'
'ballistic_'
'balances_'
'bad'
'backlash_'
'bache'
'bac'
'bab'
'b2'
'ayatollah'
'aus'
'attractive_'
'attract_'
'attending_'
'attend'
'atte'
'atr'
'ato_'
'athlete'
'ater_'
'asthma_'
'assist'
'asset_'
'asserti'
'asserted_'
'asse'
'ases_'
'asan'
'artificial_'
'arti'
'arrival_'
'arm'
'arche'
'approv'
'applicant_'
'appear'
'appeal'
'any'
'anxi'
'antly_'
'antic'
'answering_'
'anonym'
'anger'
'anci'
'anc'
'amin'
'ambitious_'
'alum'
'altogether_'
'alt'
'allot'
'allocat'
'allo'
'allegiance_'
'ality_'
'alists_'
'align'
'ale_'
'alan'
'aki'
'airli'
'ail'
'agon'
'afterwards_'
'afterward_'
'affiliated_'
'affiliat'
'advisor_'
'advising_'
'advise'
'adverse_'
'advantages_'
'admit'
'admission'
'administrators_'
'adamant'
'acute'
'actuar'
'actu'
'actress_'
'activ'
'acity_'
'aci'
'achieving_'
'ache'
'ace'
'accuser'
'accuracy_'
'accounted_'
'accomplishments_'
'accommodations_'
'accepting_'
'academic'
'abundant'
'abstract_'
'abs'
'aW'
']\\'
']\'
'\\\\'
'[ '
'Zo'
'Zl'
'ZS'
'Yel'
'YEAR_'
'Y3'
'Y2'
'Xi'
'Xavier_'
'X2'
'Writ'
'Woodr'
'Won'
'Wilmington_'
'Wild'
'White'
'Weisberg_'
'Webs'
'Waste_'
'WY_'
'WL'
'WHO'
'WHI'
'WAY_'
'WALL_'
'WAGE'
'Vl'
'Visit'
'Visa_'
'Vict'
'Via'
'Vale'
'VIOLATI'
'VIOLATE'
'VFW_'
'VES'
'VER_'
'VEL'
'Update_'
'Unless_'
'Und'
'Ul'
'USS'
'UR_'
'UNT'
'ULT'
'UIT'
'UI'
'UAW_'
'Type'
'Turk'
'Tucson_'
'Trustees_'
'Trey_'
'Trent'
'Transcript_'
'Town'
'Top'
'Ton'
'Tommy_'
'Todd_'
'Thai'
'Th'
'Texa'
'Terry_'
'Terri'
'Team'
'Teachers_'
'Taking_'
'TWO'
'TTED_'
'TRUST'
'TRANSFER_'
'TOM'
'TN'
'TLE'
'TIN'
'THUS_'
'THOUGH_'
'TAL'
'TAKEN_'
'TAIN'
'Swi'
'Suzanne_'
'Suppl'
'Subs'
'Subject_'
'Sub'
'Studies_'
'Strong_'
'Steven_'
'Stephan'
'Step'
'Steele_'
'Stea'
'Stan'
'St'
'Speech_'
'Speaking_'
'Sounds_'
'Son'
'Solyndra_'
'Sla'
'Ski'
'Sin'
'Sign'
'Side_'
'Sid'
'Shu'
'Short'
'Shore_'
'Shiite_'
'Shield'
'Sf'
'Seven_'
'Sergeant_'
'Serb'
'Sep'
'Send'
'Scri'
'Science_'
'Sche'
'Scar'
'Sav'
'Sasha_'
'Same_'
'Sal'
'Saint'
'Sachs_'
'SW'
'SUV'
'SURVIVOR'
'SUFF'
'STOCKMAN_'
'STAND'
'SR'
'SPAN'
'SOR'
'SM_'
'SIT'
'SHE_'
'SER_'
'SER'
'SECU'
'SEA'
'SCHUMER_'
'SAR'
'SAFE'
'SAC'
'Rosatom_'
'Rome_'
'Roman'
'Rockies_'
'Robinson_'
'Robin_'
'River_'
'River'
'Ris'
'Revol'
'Requirement'
'Request_'
'Reported'
'Religion_'
'Rel'
'Register_'
'Regi'
'Regard'
'Refugees_'
'Refu'
'Reduction_'
'Red'
'Reconciliation_'
'Ratings_'
'Rat'
'RL'
'RIO'
'RICH'
'RET'
'REST_'
'RESTRAIN'
'RESPECT_'
'RESIDE'
'REQUIRED_'
'REPU'
'RECE'
'REASON'
'READ'
'Quin'
'Quali'
'Qua'
'QUA'
'Put'
'Purchase'
'Publish'
'Ps'
'Provisions_'
'Provi'
'Protect'
'Produc'
'Preview_'
'Preventive_'
'Presi'
'Premiums_'
'Predator'
'Pra'
'Power_'
'Pou'
'Portland_'
'Port_'
'Plann'
'Pl'
'Pistorius_'
'Pierre_'
'Physicians_'
'Pho'
'Philip'
'Peters'
'Pet'
'Peru_'
'Person'
'Permanent_'
'Pens'
'Penn'
'Para'
'Paper'
'Pack'
'PUNISH'
'PS_'
'PROVIDES_'
'PROV'
'PROTECTION_'
'PROPER'
'PROF'
'PROB'
'PRINCIPLE'
'PRESUMPTION_'
'POW'
'POTUS_'
'POS'
'POLITICO_'
'PLEAS'
'PERMI'
'PE'
'PAYMENT_'
'PARAGRAPHS_'
'PAR'
'Overseas_'
'Orrin_'
'Original'
'Opr'
'Oppo'
'OW'
'OVER'
'OUT'
'OTHER'
'ORT'
'ORD'
'ONLINE_'
'OG'
'OD'
'Nous_'
'Not'
'North'
'Norquist_'
'Nev'
'Net_'
'Net'
'Nashville_'
'NY'
'NX'
'NW'
'NV_'
'NOTI'
'NGE'
'NESS_'
'NEED'
'NCTION'
'NB'
'NATION_'
'NAN'
'NAI'
'Mus'
'Muhamm'
'Mos'
'Morgan_'
'Moreover_'
'Moo'
'Mom'
'Moham'
'Mode'
'Mobil_'
'Moammar_'
'Mich'
'Meeting'
'Meet_'
'Mea'
'McDon'
'McCrummen_'
'McCarthy_'
'Max_'
'Mass'
'Marxist_'
'Marti'
'Mars_'
'Marri'
'Marqu'
'Maria'
'Mand'
'MORE'
'MILL'
'MEAN'
'MAT'
'MAND'
'MAKE_'
'MAK'
'Love_'
'Lottery_'
'Lott_'
'Lorain_'
'Lizbeth'
'Link'
'Limit'
'Libyan'
'Libert'
'Libby_'
'Lew'
'Leo'
'Legislati'
'Lee_'
'Lay'
'Laura_'
'Laughs_'
'La_'
'LYN'
'LOVETT_'
'LOC'
'LIS'
'LING_'
'LIF'
'LIE'
'LEGISLATION_'
'Knox'
'Knowing_'
'Kirk'
'Kin'
'Kenya_'
'KAGAN_'
'Jose_'
'Join'
'Jk'
'Jerusalem_'
'Japanese_'
'Jacob_'
'JUN'
'JUDGE_'
'JUD'
'JIM_'
'Iv'
'Italian_'
'It'
'Islamis'
'Isa'
'Irish_'
'Investigation'
'Interior_'
'Infrastructure_'
'Indonesia_'
'Imp'
'Imag'
'Il'
'Ia'
'IO_'
'IOUs_'
'INTEN'
'INGS_'
'INED_'
'INCOME_'
'INCLUDING_'
'INAT'
'IMPOSE'
'IMP'
'IFIED_'
'IDI'
'IDE'
'ICTION'
'ICS_'
'ICI'
'Humanit'
'Hug'
'Huffington_'
'Hoyer_'
'Hope_'
'Hoover_'
'Honor'
'Holy_'
'Hell_'
'Haven_'
'Hand'
'HY'
'HEA'
'HARRIS_'
'Guardian_'
'Grand'
'Grace_'
'Gill'
'Gerald'
'Gay_'
'Galvin_'
'Galesburg_'
'Gab'
'GRE'
'GPS_'
'GOVERN'
'GNI'
'GN'
'GLICK_'
'GI_'
'GIVE'
'GH'
'GES_'
'G2'
'Further_'
'Full_'
'Friends_'
'Friedman_'
'Free'
'Founders_'
'Follow_'
'Folks_'
'Flag'
'Fiorina_'
'Feingold_'
'Feed_'
'Featur'
'Father_'
'Fas'
'Farm'
'False_'
'Falls_'
'Face_'
'FUTURE_'
'FULLY_'
'FT'
'FRE'
'FRA'
'FORB'
'FOR'
'FK'
'FIVE_'
'FIS'
'FIRST_'
'FFRDC_'
'FFR'
'FEC'
'FARE_'
'FAMIL'
'F2_'
'Expl'
'Europeans_'
'Establishment_'
'Eman'
'Economi'
'Eberwein_'
'Eb'
'EW'
'EVENT'
'EST'
'ES'
'EQUEN'
'ENACTED_'
'EMPLOYE'
'EMANUEL_'
'ELIGIBLE_'
'ELE'
'EH'
'EF'
'EED_'
'ECONOMY_'
'EARNING'
'E2'
'Drudge_'
'Dre'
'Dona'
'Dome'
'Dom'
'Dix'
'Divided_'
'Dirksen_'
'Df'
'Deva'
'Den'
'Demo'
'Dela'
'Debt_'
'Debate_'
'Dear_'
'Dana_'
'Dam'
'Dad'
'DSH_'
'DISQUALIFIED_'
'DICT'
'DENT'
'DEMO'
'DEFI'
'DEFENSE_'
'DECI'
'DA_'
'DAY_'
'DATE_'
'Crowd'
'Cre'
'Cr'
'Cour'
'Counter'
'Correction'
'Consider'
'Conservation_'
'Conservati'
'Connect'
'Cond'
'Companies_'
'Compa'
'Columbus_'
'Cle'
'Clay_'
'Clai'
'Citizen'
'Citi'
'Christine_'
'Christi'
'Choices_'
'Chi'
'Chelsea_'
'Chavez_'
'Chapter_'
'Cate'
'Case_'
'Caroline_'
'Carole_'
'Cardinal'
'Cantor_'
'Canadians_'
'Cabinet_'
'CUT_'
'CTION_'
'CTED_'
'CRO'
'COUR'
'COT'
'CONTEN'
'CONC'
'COMPL'
'COMPE'
'COMPA'
'COME'
'COLLE'
'CHEERS_'
'CERT'
'CDU_'
'CDC_'
'CAT'
'Byr'
'Buzz_'
'Buz'
'Bus'
'Buc'
'Brun'
'Brookings_'
'Bou'
'Bott'
'Bod'
'Blu'
'Blog'
'Bir'
'Bills_'
'Bibi_'
'Bh'
'Beyond_'
'Beth'
'Berk'
'Benefit_'
'Baucus_'
'Ban_'
'Backs'
'BUSH_'
'BRO'
'BREA'
'BOR'
'BLS_'
'BELIE'
'BEING_'
'BBC_'
'BASIC_'
'BAR'
'Around_'
'Arizonans_'
'Appre'
'Applica'
'Appeals_'
'Antarctic'
'Anselm_'
'Andr'
'Ana'
'Alexis_'
'Ai'
'Agent'
'Adv'
'Act'
'Across_'
'Accountability_'
'Account_'
'Accord'
'Abs'
'Abe_'
'Abdulmutallab_'
'Abb'
'ATE_'
'APPR'
'APPLICA'
'AO'
'ANWR_'
'AMOUNT_'
'AMERICA_'
'AMENDED_'
'AMEND'
'AMA_'
'ALBRIGHT_'
'AIMED_'
'AID'
'AGR'
'@ '
'?”\10;\10;'
'>>'
'> <_'
'=”_'
'=>'
';\10;\10;_'
';%'
': ..._'
'950_'
'924_'
'830'
'81_'
'720_'
'702_'
'6d'
'695_'
'613_'
'612'
'603_'
'505_'
'4a'
'432'
'405_'
'3d'
'3925_'
'382_'
'373'
'365_'
'352_'
'3525_'
'337'
'322'
'31st_'
'2c'
'297'
'285_'
'282_'
'278'
'277_'
'267'
'209_'
'206'
'2050_'
'203_'
'2025_'
'1q'
'1988_'
'1969_'
'1956_'
'192_'
'189_'
'1875_'
'174_'
'164_'
'1475_'
'138_'
'127_'
'124'
'11th_'
'10th_'
'107_'
'0s_'
'097'
'085_'
'035_'
'027'
'0225_'
'/='
'/-'
'/ '
'.”\10;\10;\10;\10;'
'.’\10;\10;‘_'
'.’\10;\10;_'
'.\10;\10;\10;\10;'
'.._'
'.....'
'.,'
'.(_'
'.' _'
'."\10;\10;\10;\10;"_'
'-\10;\10;_'
'--'
'* '
')\10;\10;'
');'
'):\10;\10;'
'): '
'). '
'(/'
''/'
'&"'
'%*'
'": _'
'!” _'
'!"'
'!! _'
' “'
' —'
' \\_'
' :'
' ... ." _'
' ... '
' . . .'
' . '
' (, _'
' ("_'
' $)_'
' #'
'出'
'ッ'
'り'
'ます'
'か'
'—'
'û'
'é_'
'_'
'zip'
'yw'
'ystal_'
'yst_'
'ysi'
'yr'
'yp'
'yon'
'yin'
'yield'
'yg'
'yers_'
'yen'
'yal'
'xing_'
'xed_'
'writers_'
'wrapped_'
'wrap_'
'worthiness_'
'wors'
'woe'
'withhold'
'wipe_'
'wings_'
'willfully_'
'whe'
'whaling_'
'whale'
'wha'
'weird_'
'weighs_'
'weakened_'
'watchdog_'
'wasted_'
'wash'
'wart'
'warnings_'
'warehouse_'
'wards_'
'waiver_'
'vulnerabilit'
'volunteer_'
'voluntarily_'
'vir'
'villa'
'vil'
'vigilant_'
'vide'
'vering_'
'verif'
'veiled_'
'vee'
'vd'
'vat'
'vaccinations_'
'vaccinate_'
'utio'
'uth'
'usher'
'urs'
'urr'
'urb'
'upgrade'
'uous_'
'unwarranted_'
'unto'
'unres'
'unrep'
'unraveling_'
'unpleasant_'
'unlimited_'
'unjust'
'unilateral'
'ung'
'unexpected_'
'unequivocal'
'undisc'
'undertake'
'understand'
'undern'
'underestimated'
'undercut'
'undecided_'
'uncons'
'uncomp'
'uncle'
'unchecked_'
'unanimous_'
'unan'
'umptive_'
'umin'
'ume_'
'umb'
'umatic_'
'uma'
'ultra'
'ulti'
'ulsion'
'ull'
'uit'
'uish'
'uding_'
'ucti'
'uce_'
'uality_'
'ual'
'uad'
'u\u\u'
'tyran'
'typ'
'tweet'
'twe'
'tube_'
'tti'
'tsunami_'
'trum'
'trucks_'
'troubles'
'trition'
'trick_'
'treasure_'
'trat'
'trapp'
'transmitt'
'transmi'
'translation'
'transition'
'transit_'
'transc'
'trajectory_'
'touted_'
'tours_'
'totaling_'
'torial_'
'tolerate_'
'tolerat'
'tol'
'tod'
'tman_'
'tiz'
'titut'
'titles_'
'tirelessly_'
'tipped_'
'tip'
'timi'
'timeframe_'
'time'
'till'
'til'
'tighten_'
'tie'
'tian'
'thu'
'thought'
'tho'
'thirty_'
'thetic_'
'thes'
'thereby_'
'theorists_'
'thei'
'theft'
'thef'
'thea'
'testified_'
'terrifying_'
'tern'
'terminate_'
'terat'
'tep'
'tenth'
'tends_'
'tender_'
'tempt'
'templ'
'temperatures_'
'tell'
'telecommunications_'
'teg'
'teeth_'
'teenage_'
'teen'
'tee'
'tear_'
'tear'
'tchi'
'tches_'
'tched_'
'tball'
'taste_'
'tas_'
'tangible_'
'tally_'
'take'
'tain_'
'tE'
'system'
'synd'
'symbolic_'
'sym'
'swimm'
'swift_'
'sweetheart_'
'sweet_'
'swear'
'sville_'
'suspended_'
'suspend_'
'survivor'
'surviving_'
'survived_'
'surveill'
'surrender_'
'surre'
'surpass'
'supremac'
'supplie'
'supplement'
'supervisor_'
'supervision_'
'supervised_'
'superintendent'
'sun_'
'summon'
'summary_'
'summari'
'sul'
'suicides_'
'sug'
'sufficient'
'suck'
'succumb'
'succeeding_'
'subway_'
'subsidize'
'subsidiary_'
'subscribe'
'submarine'
'stupidity_'
'stunt'
'strial'
'streams_'
'straw'
'strategically_'
'stl'
'stimulati'
'stick'
'stical'
'stfeed'
'stewa'
'steri'
'ster'
'stepping_'
'steep'
'steal'
'stead'
'statutory_'
'statistic_'
'startups_'
'standa'
'stam'
'stak'
'staff'
'stadium'
'spr'
'spouses_'
'spotlight_'
'sponsors_'
'spoile'
'spirited_'
'spin_'
'sper'
'speculat'
'specif'
'spark'
'space'
'sou'
'solike'
'societies_'
'socialized_'
'sneak_'
'snap_'
'smile_'
'smile'
'smart'
'sman_'
'sly'
'sleeve'
'sleep'
'slate'
'slashing_'
'slap'
'siz'
'singing_'
'silence_'
'sign'
'sia'
'shu'
'shouting_'
'shots_'
'shortc'
'shortage_'
'shme'
'shield'
'shell'
'shel'
'shattered_'
'shap'
'sham'
'shal'
'shaken_'
'sexis'
'severi'
'settlements_'
'sett'
'ses'
'servants_'
'seriousness_'
'sequester_'
'separating_'
'separately_'
'sentiment'
'sentencing_'
'sense'
'sens'
'sena'
'semina'
'semi'
'sells_'
'selective'
'seizure'
'segregat'
'sef'
'secular'
'sectarian_'
'secretaries_'
'seasons_'
'seal'
'scrub'
'screenshot'
'scored_'
'sci'
'scholarship_'
'scholar'
'sc'
'savior'
'sats_'
'sari'
'sar'
'sadly_'
'sacrosanct_'
'sX'
'sN'
'rumo'
'rude'
'rud'
'rubb'
'rty_'
'rtial'
'rth'
'rson'
'rry_'
'rre'
'rr_'
'royal_'
'roy'
'rov'
'routinely_'
'round'
'rota'
'roots_'
'rome_'
'rod'
'robbery_'
'roar'
'road'
'rns_'
'rming_'
'rmation_'
'riz'
'ritual'
'ription_'
'rigs_'
'rifles_'
'rience'
'ridicul'
'richest_'
'rial'
'rewarding_'
'revolutions_'
'revol'
'revoke_'
'reversed_'
'retiring_'
'retic'
'rete'
'restructure_'
'restroom_'
'restrict'
'restrain_'
'respi'
'resist_'
'resilience_'
'residence_'
'residenc'
'reset_'
'reserv'
'rese'
'requesting_'
'repudiate_'
'repri'
'repressi'
'repl'
'reorganiz'
'reopen'
'renovation_'
'renewal'
'render'
'rence_'
'remit'
'rem'
'reliev'
'relied_'
'relation_'
'rel'
'reject'
'reiterated_'
'reinsur'
'reinforces_'
'regu'
'regrett'
'regrets_'
'refundable_'
'reformed_'
'refine'
'refers_'
'refere'
'redu'
'red'
'recycling_'
'recuse'
'recu'
'reconstruction_'
'reconn'
'recommendation_'
'recognizes_'
'recog'
'reciprocal_'
'recipient_'
'rebuilt_'
'reassess'
'reasse'
'reasoning_'
'realis'
'reaffirm'
'reads'
'read'
'reactor_'
'reach'
'ray_'
'rattl'
'rational_'
'ration'
'ratify_'
'ratif'
'rapid_'
'raphy_'
'raped_'
'rant'
'rand'
'rancher'
'ramp'
'ramm'
'rals_'
'rak'
'raiser_'
'radicaliz'
'racke'
'rable_'
'quoting_'
'quo'
'quip'
'quiet_'
'quer'
'quart'
'qualifying_'
'qual'
'quadruple'
'puzzle_'
'pus'
'purport'
'purp'
'publicity_'
'ption'
'ptic'
'psychology_'
'psychologi'
'psy'
'pse'
'provin'
'proves_'
'proudly_'
'proude'
'protocol'
'protest'
'prosecute_'
'proprietary_'
'proponents_'
'proponent_'
'prophe'
'prop_'
'pronounced_'
'prompting_'
'prompt'
'promotion_'
'prom'
'prolong'
'project'
'progressives_'
'programm'
'profession_'
'profess'
'proclaimed_'
'proce'
'proc'
'probab'
'privileged_'
'pris'
'prin'
'prima'
'prevents_'
'prevent'
'prestig'
'presid'
'presently_'
'presenting_'
'presc'
'prepare'
'premises_'
'premier'
'preliminary_'
'prejud'
'precipi'
'preacher'
'prai'
'pport'
'ppm_'
'pound_'
'poster_'
'possibilities_'
'posing_'
'popular'
'popp'
'pone'
'pollut'
'politiciz'
'policing_'
'policeman_'
'polarize'
'po_'
'pn'
'ply_'
'pluralis'
'plung'
'plume'
'pli'
'pledg'
'plane'
'pir'
'pig'
'pid_'
'pickup_'
'physically_'
'photographer'
'photograph_'
'photograph'
'phil'
'phase_'
'petit'
'pes_'
'perpetrated_'
'pening'
'penaliz'
'pee'
'pause_'
'paus'
'patrolling_'
'patrick_'
'pati'
'pate'
'pass'
'partnerships_'
'pars'
'parliamentarian_'
'park'
'paraly'
'pant'
'pair_'
'painted_'
'oying_'
'owning_'
'owitz_'
'overthr'
'overstretched_'
'oversta'
'overl'
'overd'
'ov'
'outw'
'outsp'
'outright_'
'outrageous'
'outpa'
'outlines_'
'outline_'
'outlaw'
'outg'
'outfit'
'outdated_'
'otion'
'orth'
'orr'
'orous'
'oring_'
'ories_'
'orient'
'ordering_'
'orchestrated_'
'orbit'
'oq'
'option'
'optimis'
'opti'
'opol'
'opia'
'ophi'
'opens_'
'oon_'
'ook_'
'ony'
'onshore_'
'onomics_'
'onna'
'omi'
'ologist'
'oll'
'olate'
'olas_'
'oked_'
'ointment'
'oils_'
'ogra'
'ogist'
'offr'
'offenders_'
'odu'
'odi'
'occupying_'
'occup'
'obstructi'
'obstacle'
'observe'
'observation'
'observ'
'obligated_'
'objects_'
'objecting_'
'oa_'
'nutrition'
'nu_'
'ntion_'
'ntan'
'normal'
'nonre'
'nonpro'
'nonexistent_'
'nned_'
'nn_'
'nmen'
'niza'
'niz'
'nish'
'nie_'
'nie'
'ngu'
'ngne'
'nger_'
'nfo'
'nez_'
'net'
'neph'
'negotiator_'
'negotia'
'neglected_'
'near'
'ndan'
'ncing_'
'nche'
'narrowe'
'nard_'
'narc'
'naming_'
'mé'
'myst'
'my'
'must'
'muscle'
'mur'
'munition'
'municipal_'
'munic'
'mum'
'multim'
'mull'
'muddle_'
'mption'
'mpa'
'mp_'
'movi'
'move'
'mountain'
'motorc'
'monument_'
'monies_'
'mog'
'modernize_'
'moderni'
'modeling_'
'mobiliz'
'mming_'
'mmen'
'mma'
'mit'
'misunderstand'
'misrepresent'
'misp'
'mismanagement_'
'misled_'
'mira'
'minimiz'
'minimal_'
'ming'
'militant'
'milestone_'
'mik'
'midt'
'middl'
'mic_'
'methodolog'
'method_'
'metal'
'met'
'messy_'
'merit_'
'merit'
'merely_'
'mentor'
'mention'
'mentar'
'mene'
'memor'
'memo'
'meltdown_'
'mbers_'
'maxe'
'mav'
'matur'
'mathematic'
'marr'
'marine'
'mari'
'margin'
'manufactur'
'mansion'
'mans'
'mammogra'
'mala'
'mal_'
'maint'
'mai'
'magnifi'
'magnet'
'magic_'
'machine'
'lyn'
'lw'
'lusive'
'lump'
'lum'
'lucrative_'
'lte'
'loyalt'
'lou'
'lors_'
'loosen'
'looming_'
'lon'
'locks_'
'lock'
'local'
'lma'
'lls_'
'llig'
'llel_'
'litigation'
'lita'
'liquidate'
'lip'
'lion_'
'liners_'
'limousine_'
'lightning_'
'lig'
'lift'
'lifesaving_'
'licensees_'
'licen'
'licat'
'liberated_'
'lib'
'lers'
'lera'
'lence_'
'lei'
'legitimately_'
'legit'
'legislating_'
'legislat'
'legend'
'lega'
'lee'
'lectur'
'layo'
'laundry_'
'laughed_'
'laugh_'
'latte'
'lati'
'languages_'
'ladder_'
'lace'
'laborator'
'label_'
'knife'
'killers_'
'kidding_'
'kicking_'
'kha'
'keys_'
'ket_'
'ken_'
'justifie'
'juris'
'jumping_'
'jump_'
'jorit'
'joked_'
'jok'
'jobless_'
'jl'
'jihadis'
'jani'
'jad'
'izations_'
'iz_'
'ivit'
'ivat'
'itudes_'
'itu'
'itle'
'issu'
'issa'
'iss'
'isla'
'ised_'
'irresponsibility_'
'irrelevant_'
'ire'
'iq'
'ipal_'
'iors_'
'iorat'
'invoked_'
'invo'
'invisible_'
'investigative_'
'inventions_'
'intrusive_'
'intrusion_'
'intolerance_'
'intima'
'interstate_'
'interrogat'
'interpreted_'
'interfere_'
'interdi'
'interacti'
'intentionally_'
'intent_'
'intellectual_'
'intellect'
'insurer_'
'insur'
'instructed_'
'insol'
'inso'
'insisting_'
'insiders_'
'insa'
'inp'
'innovators_'
'innovat'
'innings_'
'inl'
'inju'
'initiati'
'inherent'
'inh'
'ingto_'
'ingt'
'ingredient'
'influx_'
'influenc'
'inflat'
'infer'
'infan'
'inevitability_'
'indo'
'indivi'
'indirect_'
'indict'
'indicator'
'indicati'
'indefinite'
'increment'
'incorpora'
'incompetence_'
'incar'
'ination'
'inar'
'improper'
'imprisonme'
'impr'
'impoverish'
'imposing_'
'imperi'
'impair'
'immor'
'imme'
'ime'
'imb'
'ils_'
'illustrates_'
'illus'
'illing'
'illicit'
'illi'
'illeg'
'iles'
'ike'
'igh'
'igat'
'ifying_'
'ieve'
'ier'
'ield'
'ider'
'icient_'
'ich_'
'ibu'
'iat'
'ias_'
'ialit'
'hypothetical'
'hyper'
'hyp'
'hus'
'humane'
'human'
'housed_'
'hotels_'
'host'
'hospitalized_'
'horri'
'hori'
'honorably_'
'homicides_'
'hog'
'hm_'
'historian'
'hijack'
'hf'
'hers_'
'heroic'
'hens'
'hem'
'helicopter'
'hazardous_'
'haw'
'hast'
'harge'
'hardt_'
'harassment_'
'hanc'
'hammer_'
'halt'
'hallmark_'
'halfway_'
'hacks_'
'hackings_'
'habit_'
'gutting_'
'guess'
'guardi'
'guar'
'gs'
'grossly_'
'grocery_'
'grid'
'greet_'
'gray_'
'gravit'
'gratif'
'grate'
'grasp'
'graphically_'
'grands'
'gp'
'gov'
'gotta_'
'gory_'
'goat_'
'gno'
'gmati'
'gly_'
'glori'
'globalization_'
'gled_'
'gio'
'gimmick'
'gic'
'gib'
'ggl'
'gge'
'gga'
'geopolitical'
'geographic_'
'genital'
'generosity_'
'gene'
'geable_'
'gases_'
'gard'
'gaps_'
'gani'
'gall'
'g9'
'fundraising_'
'fti'
'fringe_'
'frightening_'
'frig'
'freed_'
'framed_'
'forward'
'fortu'
'forgiveness_'
'forgive'
'foresee'
'forb'
'footage_'
'focuses_'
'flyers_'
'flow'
'float'
'flew_'
'fleet'
'flaws_'
'flat'
'fist'
'fish_'
'fingers_'
'fines_'
'financially_'
'fifteen_'
'ffet'
'ffect'
'fere'
'fer_'
'fend_'
'fem'
'feit_'
'feedback_'
'feed'
'feasib'
'fatally_'
'fat_'
'fascism_'
'farmer_'
'fare_'
'falsely_'
'falsehood_'
'fals'
'faith'
'facilitate'
'exuberant_'
'extrapolat'
'extrac'
'extensions_'
'exploit'
'explode'
'explanations_'
'expendi'
'expedi'
'expe'
'expansi'
'exhibit'
'exempt'
'executi'
'executed_'
'excus'
'exclusion'
'exclude_'
'excit'
'excise'
'excess'
'excel'
'examining_'
'exaggerating_'
'ewi'
'event'
'eve'
'eum'
'etta_'
'ethe'
'eter'
'essence_'
'espouse'
'esm'
'esi'
'escalat'
'erratic_'
'eron'
'erod'
'erne'
'erine_'
'eral_'
'equivocat'
'equals_'
'epitomizes_'
'envis'
'environmentally_'
'environment'
'entio'
'enterpris'
'entangl'
'enroll_'
'enriched_'
'enduring_'
'endure_'
'endowed_'
'enda'
'encies_'
'empowered_'
'employs_'
'empir'
'emphasize'
'emotional_'
'emerging_'
'ement'
'eme'
'embr'
'embarrassed_'
'emat'
'eman_'
'ella'
'eline'
'eliminat'
'elie'
'electi'
'eks'
'ek'
'eing_'
'ein_'
'eighth_'
'ehea'
'eggs_'
'egg_'
'efully_'
'efficien'
'educat'
'edu'
'econom'
'eca'
'eball_'
'eath_'
'easi'
'earth'
'ears_'
'earlie'
'eans_'
'eady_'
'ead_'
'ead'
'eBook_'
'dysfunction'
'dus'
'durable_'
'dup'
'dump_'
'dumb'
'dubious_'
'dson_'
'drum'
'drilled_'
'drift'
'dressed_'
'dress_'
'dreamers_'
'drawdown_'
'draw'
'drain_'
'drag_'
'downward_'
'downtown_'
'downgrad'
'doubl'
'dos'
'dono'
'donat'
'dome_'
'domains_'
'documented_'
'docu'
'dock'
'dne'
'dling_'
'dividend_'
'divert'
'diversi'
'div'
'dition'
'dit_'
'distress_'
'distraction_'
'distorti'
'distinct'
'disti'
'distant'
'dista'
'dist'
'dissent_'
'disseminat'
'disruption'
'disrespectful_'
'disregard'
'disproportionate'
'disposition'
'displa'
'dispatch'
'dismissi'
'dismantle_'
'disl'
'dishonest_'
'disg'
'disen'
'discriminatory_'
'discoveries_'
'discover_'
'discour'
'disapprov'
'disappoint'
'disagrees_'
'dirt_'
'directing_'
'diminish'
'dimen'
'diligent'
'digging_'
'diction'
'dictate'
'di_'
'devo'
'devil_'
'deteriorating_'
'detecti'
'detected_'
'detainer'
'detai'
'detach'
'destroyer_'
'destabilizing_'
'desta'
'dest'
'despot'
'despi'
'designing_'
'dering_'
'dere'
'deport_'
'deploy'
'deplor'
'denunciation'
'democrats_'
'demi'
'delu'
'deliberately_'
'deliberat'
'delegate'
'delays_'
'degrees_'
'degrade'
'defun'
'definition'
'defer_'
'defense'
'defendant'
'defen'
'defect'
'defeating_'
'deepe'
'deemed_'
'dedicati'
'deco'
'decisionmak'
'deb'
'dear_'
'dear'
'dealership'
'ddi'
'dda'
'dcast'
'dau'
'dare'
'dK'
'dF'
'd3'
'cuse'
'curtilage_'
'curtail'
'cument'
'cumber'
'cub'
'cta'
'crush_'
'crop_'
'cronyism_'
'cro'
'criticisms_'
'criti'
'cription_'
'crippling_'
'crip'
'criminalize'
'cries_'
'cribe'
'credited_'
'cream'
'cre'
'cratic'
'cracking_'
'cq_'
'cow'
'courte'
'counterpart'
'cosm'
'correction_'
'corners_'
'corn_'
'copyright_'
'coordinated_'
'cooperat'
'convictions_'
'convey'
'conversion_'
'convers'
'convenient'
'convenience_'
'contributes_'
'contradiction_'
'contested_'
'contentious_'
'contemp'
'contaminat'
'container'
'consultant_'
'consul'
'constraint'
'constitutionality_'
'constituenc'
'consolidati'
'consistency'
'considers_'
'conservati'
'conse'
'consciousness_'
'cong'
'confront'
'confo'
'confiscated_'
'conditioning_'
'condemning_'
'concentration_'
'conceal'
'computers_'
'comput'
'comprise'
'comprehensively_'
'compr'
'complied_'
'complic'
'complex'
'complet'
'complacen'
'competiti'
'competence_'
'compelling_'
'compassionate_'
'comparisons_'
'comparing_'
'comparable_'
'compar'
'compactor_'
'commi'
'commenting_'
'commented_'
'comedi'
'combati'
'combat'
'colore'
'collision'
'collectively_'
'coffee_'
'coal'
'coa'
'cloud'
'close'
'cling'
'clever_'
'clerk_'
'clearance'
'claw'
'classrooms_'
'classic_'
'clarifi'
'cl'
'cka'
'civil'
'citi'
'citations_'
'cilit'
'cif'
'chronic'
'chip'
'chin'
'chilling_'
'chiefs_'
'chest_'
'chem'
'cheered_'
'cheat_'
'charm'
'charity_'
'characters_'
'chanting_'
'chant_'
'chaired_'
'certifying_'
'cere'
'cer_'
'cept'
'centuries_'
'census_'
'cens'
'ceme'
'celebrities_'
'celebration_'
'celebrating_'
'celebrated_'
'cce'
'caveats_'
'cautious_'
'cati'
'categori'
'cated_'
'casi'
'carries_'
'carn'
'cargo'
'care'
'capturing_'
'caption'
'capped_'
'capitol_'
'capitaliz'
'cannabi'
'campuses_'
'camp_'
'caliber_'
'calcul'
'cade'
'buys_'
'buster_'
'bus'
'burn'
'burie'
'bureaucratic_'
'bum'
'bullets_'
'builds_'
'budget'
'bud'
'bso'
'browsing_'
'browse'
'broaden'
'brid'
'brace'
'boycott'
'bow_'
'bow'
'bour'
'boun'
'bot'
'borrowers_'
'bord'
'boon_'
'boomers_'
'bon'
'bombard'
'bogg'
'bog'
'blows_'
'blown_'
'blow'
'blog'
'blockade_'
'blew_'
'blast'
'blasphemy_'
'blank'
'bl'
'biolog'
'bili'
'bie'
'bidd'
'bibl'
'bian_'
'bi_'
'berr'
'berna'
'bering_'
'benefiting_'
'benchmark'
'belt'
'belonging'
'belo'
'beli'
'bel'
'behavioral_'
'behavi'
'bed'
'bec'
'beatif'
'bearings_'
'bearing_'
'beard'
'beaches_'
'bbed_'
'batt'
'bati'
'basket_'
'bang'
'bana'
'bake'
'bag_'
'bag'
'bH'
'azi'
'az'
'awesome'
'awake_'
'avoiding_'
'avi'
'aux'
'authorizes_'
'auth'
'aur'
'audi'
'ature_'
'attribute_'
'attribut'
'attached_'
'attac'
'atory_'
'atom'
'ational'
'atio'
'athe'
'atch'
'astronaut'
'astro'
'assisting_'
'assembled_'
'ass_'
'ased_'
'ase_'
'arrow'
'arrests_'
'arrange_'
'arr'
'aro'
'armor_'
'ark'
'arit'
'arian'
'arde'
'approaching_'
'apprentices'
'apprehen'
'appointee'
'applaud_'
'appl'
'appetite_'
'apologies_'
'apologi'
'apartheid_'
'ans'
'aniya'
'animal_'
'anima'
'ania'
'anec'
'ane_'
'ance'
'analyz'
'amus'
'amm'
'amend'
'ambula'
'ambivalent_'
'alternate'
'alley_'
'allegi'
'alla'
'alienate'
'alie'
'ales_'
'albe'
'alarm'
'ake_'
'ake'
'ak'
'airline_'
'airing_'
'aine_'
'aims_'
'ai_'
'agre'
'aggr'
'afo'
'affiliates_'
'adv'
'adult'
'adopti'
'adolescen'
'admire'
'admir'
'administered_'
'administer'
'adj'
'adheren'
'adher'
'additi'
'acy_'
'actiona'
'acteri'
'acr'
'acquiring_'
'acquaintance_'
'acqu'
'acknowledge'
'acid_'
'achieves_'
'achievements_'
'achi'
'ache_'
'ach_'
'accessi'
'acceptance_'
'accel'
'abuses_'
'absorb'
'absent'
'abolish'
'abl'
'abilit'
'aH'
'`.'
'^['
']:'
']/'
'], _'
'\u\u\u\u\'
'Zu'
'ZmF'
'Zakaria_'
'You'
'Yo'
'Yf'
'Yar'
'YT'
'YR'
'YI'
'XU'
'XT'
'XS'
'XN'
'XM'
'Wyden_'
'Wouldn_'
'Worker'
'Wis'
'Willow_'
'Williams_'
'Whenever_'
'Weinstein_'
'Weiner_'
'Wein'
'Weather'
'Warner_'
'Wael_'
'WORKE'
'WOL'
'WN_'
'WM'
'WISDOM_'
'WIN'
'WEL'
'WD'
'WARD_'
'Vote'
'Vn'
'Virgin'
'Viol'
'Victory_'
'Vers'
'Vern'
'VT_'
'VP'
'VIRGINIA_'
'VIEW_'
'VERY_'
'VEBA'
'Usual'
'Using_'
'Uranium_'
'Until_'
'Unl'
'Univers'
'Uniform'
'Unders'
'Undecided_'
'Uk'
'USS_'
'USE'
'USDA_'
'URR'
'URA'
'UGH'
'UFO_'
'UF'
'UD'
'UCT'
'UATION'
'Ty'
'Tunisia_'
'Tul'
'Trying_'
'Troops_'
'Tro'
'Trini'
'Trea'
'Tre'
'Trave'
'Transcriptions_'
'Transc'
'Training_'
'Tr'
'Tour'
'Tom'
'Thu'
'Throughout_'
'Threat'
'Thi'
'Text_'
'Testament_'
'Tenn'
'Technology_'
'Techni'
'Target'
'Tale'
'Taiwan_'
'TSA_'
'TRE'
'TRAT'
'TRA'
'TP'
'TIVE_'
'TITU'
'THY_'
'THROUGH_'
'THI'
'TES_'
'TEST'
'TEN_'
'TEA'
'TCH'
'TA_'
'Swe'
'Supports_'
'Summers_'
'Sui'
'Stormy_'
'Steeler'
'Station_'
'Standards_'
'Stand_'
'Spring'
'Sports'
'Spok'
'Southeast_'
'Sociali'
'Site_'
'Sis'
'Sing'
'Simi'
'Sidney_'
'Shooting_'
'Shoemaker_'
'Shi'
'Shell_'
'Shaw_'
'Sharia_'
'Shar'
'Semitism_'
'Seehofer_'
'See'
'Securi'
'Secure'
'Scooter_'
'Sciences_'
'Sci'
'Schwarz'
'Schi'
'Scha'
'Scal'
'Saving'
'Salva'
'Sac'
'Saa'
'SWE'
'SVR_'
'SUPPORT_'
'SUP'
'SUM'
'SUBJECT'
'STU'
'SS'
'SPEND'
'SPECIAL_'
'SOM'
'SM'
'SLA'
'SL'
'SING_'
'SHI'
'SF'
'SEVER'
'SET_'
'SETT'
'SECS_'
'SCHNELL_'
'SAT'
'S1202'
'Ruth_'
'Run'
'Rove_'
'Roundtable_'
'Rothschild'
'Rot'
'Rosa'
'Rohack_'
'Rodham_'
'Rock'
'Robert'
'Rob'
'Roa'
'Rl'
'Richards'
'Rica'
'Ric'
'Reve'
'Rev'
'Ret'
'Results_'
'Requir'
'Repealing_'
'Relief_'
'Reich_'
'Regional_'
'Reform'
'Reduc'
'Record_'
'Recession_'
'Ray_'
'Raul_'
'Radi'
'RTE'
'ROVE'
'ROTHER_'
'RON'
'ROL'
'ROG'
'RNC_'
'RM'
'RI_'
'RIC'
'RIA'
'REVE'
'RETI'
'RESI'
'REPRE'
'REP'
'REJECT'
'REGULA'
'REGAR'
'RED'
'RECORD'
'RECO'
'RECEIVE'
'REACH_'
'RCN_'
'RCE'
'RB'
'RATHER_'
'RAT'
'RANT'
'RAN'
'Quinn_'
'Quickly_'
'Quick_'
'Quarter_'
'QUALIFICATION'
'QP'
'Purdue_'
'Pundit_'
'Provo'
'Propos'
'Prom'
'Prohibit_'
'Prohibit'
'Products_'
'Pro_'
'Prison'
'Primar'
'Pret'
'President'
'Prep'
'Prejean_'
'Porter_'
'Por'
'Popula'
'Poo'
'Pollard_'
'Poll'
'Ple'
'Plat'
'Pike_'
'Phoenix_'
'Phillip'
'Philippines_'
'Ph_'
'Petroleum_'
'Penalties_'
'Payment'
'Paul'
'Patrice_'
'Patr'
'Patien'
'Parton_'
'Partnership_'
'Parl'
'Parents_'
'Pane'
'Pad'
'PY'
'PUT'
'PURPOSES_'
'PTI'
'PROVIDE'
'PROHIBIT'
'PROC'
'PRIVA'
'PRICE_'
'PREMIUM_'
'PRED'
'POSI'
'POLICY'
'PLE'
'PET'
'PERMANENT'
'PENALT'
'PEC'
'PC'
'PARTICULAR'
'PACE_'
'Oxford_'
'Own'
'Ot'
'Oss'
'Oscar'
'Os_'
'Ort'
'Oregon_'
'Ord'
'Opti'
'Opposi'
'Om'
'Offshore_'
'Ocean'
'ORSZAG_'
'ORDER_'
'OPIN'
'ONG_'
'ONCE_'
'ONAL_'
'OLUTION'
'OI'
'OH'
'OBJECT'
'O2'
'Nunes_'
'Nun'
'Notice_'
'Norma'
'Norfolk_'
'Nomin'
'Nin'
'Nik'
'Niagara_'
'Newsweek_'
'Newseum_'
'Nevertheless_'
'Neighbor'
'Nav'
'Name_'
'Nad'
'NOTHING_'
'NIS'
'NEY_'
'NEL'
'Munic'
'Multi'
'Mount'
'Mother_'
'Mormons_'
'Morell_'
'Mor'
'Month'
'Mont'
'Monmouth_'
'Missile_'
'Miss'
'Mir'
'Ministries_'
'Mini'
'Million_'
'Mill'
'Mikkelson_'
'Mifsud_'
'Metropolitan'
'Metro_'
'Method'
'Messiah_'
'Memphis_'
'Memorial_'
'Memo'
'Mem'
'Mega'
'Meg'
'Medvedev_'
'Me_'
'Md'
'McRomney'
'McK'
'McCaskill_'
'McCA'
'McA'
'Matt'
'Marke'
'Malley_'
'Mali'
'Made_'
'Maddow_'
'MRS_'
'MOT'
'MODIF'
'MOD'
'MEN_'
'MENTAL_'
'MED_'
'MARI'
'MANY_'
'Lun'
'Loyal'
'Lou'
'Los'
'Lor'
'Loomer_'
'Lon'
'Log'
'Lobbyist'
'Lm'
'Liz_'
'Lin'
'Limit_'
'Like'
'Libr'
'Libertarian_'
'Lexi'
'Legislature_'
'Leas'
'Leahy_'
'Lead'
'Law'
'Latsabidze_'
'Lastly_'
'Laredo_'
'Landrieu_'
'Lake'
'Lab'
'LS_'
'LR'
'LP'
'LLO'
'LIVE'
'LIC'
'LIBERT'
'LGBT'
'LEVIN_'
'LEN'
'LEG'
'LAND_'
'L3'
'Kuwaiti_'
'Kurz_'
'Kur'
'Kri'
'Kh'
'Kessler_'
'Kenne'
'Kellyanne_'
'Kay'
'Kaufman_'
'Kathleen_'
'Karda'
'Kabul_'
'KY'
'KNOW'
'KERRY_'
'Journalis'
'Joshua_'
'Josh_'
'Jon'
'Johns'
'Jn'
'Jm'
'Jl'
'Jh'
'Jew'
'Jessica_'
'Jerry_'
'Jar'
'Janesville_'
'Jame'
'Jamaica'
'Jackie_'
'JUSTIF'
'JUST'
'JUR'
'JT'
'JOE_'
'JH'
'JAMES_'
'Islamophobi'
'Investment_'
'Investigat'
'Invest'
'Intr'
'Inspect'
'Innovat'
'Indu'
'Indians_'
'Index_'
'Inco'
'Includ'
'Inc'
'Impa'
'Imagine_'
'Images_'
'Illegal'
'IZED_'
'ISH_'
'IRR'
'IOU'
'ION'
'INVE'
'INVA'
'INTEREST'
'INQUIRY_'
'INGTON_'
'INFO'
'IMPOSED_'
'IMPLIC'
'IMF_'
'ILLEGAL'
'IGNATIUS_'
'IGN'
'IGH'
'IFI'
'IFE'
'IDEA'
'ICAN'
'IATE'
'I9'
'Hyde_'
'Huma'
'Hugo_'
'Hm'
'Hires_'
'Hindu'
'Hicks_'
'Help_'
'Headl'
'Hayhoe_'
'Hayes_'
'Hastert_'
'Harvey_'
'Hard_'
'Haradh_'
'Hami'
'Half'
'Hale'
'HW'
'HOM'
'HOLD_'
'HISTOR'
'HIP'
'HING_'
'HER'
'HELVERING_'
'HEARING'
'HAU'
'H1N1_'
'Guar'
'Grover_'
'Greenwood_'
'Greenwald_'
'Gorsuch_'
'Gn'
'Gla'
'Girl'
'Gigot_'
'Gett'
'Georgetown_'
'Georg'
'Gateway_'
'Gas_'
'GV'
'GUARD'
'GT'
'GS1_'
'GROUP'
'GREENWALD_'
'GREAT'
'GMA'
'GENE'
'G9'
'Fuel_'
'Fro'
'Friend'
'French_'
'Freeman_'
'Fre'
'Franke'
'Form'
'Flore'
'Fli'
'Fitz'
'Fish'
'Firearm'
'Find_'
'Find'
'Fili'
'Fifty_'
'Fifteen_'
'Fift'
'Field'
'Fan'
'Fallon_'
'Fail'
'FOUR'
'FORTH_'
'FORCE'
'FOL'
'FINANCE'
'FIFTH_'
'FIE'
'FFET'
'FEAR_'
'FDR_'
'FAT'
'FAITH'
'FAIL'
'F3_'
'F11_'
'F10_'
'ExxonMobil_'
'Extra'
'Experts_'
'Expe'
'Except_'
'Every'
'Event'
'Ev_'
'Euro'
'Errol'
'Enr'
'Eng'
'Enforcement_'
'Employer'
'Embassy_'
'Elkhart_'
'Element'
'Electronic_'
'Electri'
'Elections_'
'Elect'
'Earmark'
'Early_'
'EXT'
'EXPRESS'
'EXERCISE'
'EXCLU'
'EXCEPT_'
'EVIDENT'
'ERV'
'ERR'
'ERN_'
'ERENCE_'
'EQU'
'ENTER_'
'ENC'
'EMPLOYERS_'
'EME'
'ELL'
'EI'
'EFFECT'
'EAS'
'EACH_'
'Dut'
'Duke'
'Ds'
'Dra'
'Down_'
'Dourif_'
'Doll'
'Dole_'
'Document_'
'Disp'
'Disa'
'Did'
'Dicke'
'Diane_'
'Devin_'
'Deutch_'
'Destr'
'Democrac'
'Delta_'
'Debr'
'Debbie_'
'Dealer_'
'Davi'
'Dal'
'Daddy_'
'DW'
'DUR'
'DRAWN_'
'DON'
'DISSENTING_'
'DIFF'
'DETERMIN'
'DESIGN'
'DERS'
'DEPRIVED_'
'DEPORTEE'
'DEPENDENT'
'DEGR'
'DEFE'
'DD'
'Czech_'
'Cuts_'
'Custom'
'Currently_'
'Cuomo_'
'Cuellar_'
'Crude_'
'Cru'
'Crowley_'
'Crocke'
'Critz_'
'Critics_'
'Cris'
'Criminal'
'Crescent_'
'Craig_'
'Counts_'
'Countr'
'Count'
'Correct'
'Coo'
'Contribut'
'Contr'
'Continued_'
'Content_'
'Conta'
'Conduct_'
'Concord_'
'Conc'
'Comple'
'Compe'
'Compassion_'
'Common'
'Collin'
'Clovis_'
'Clo'
'Clean_'
'Class_'
'Chronic'
'Chr'
'Choo'
'Chic'
'Chiarelli_'
'Chemical_'
'Chart'
'Char'
'Channel_'
'Census_'
'Cash'
'Captain_'
'Capit'
'Candidate_'
'Cance'
'Californian'
'CRIME_'
'CRIM'
'CRAT'
'CRA'
'CPP_'
'CONTRIBUTIONS_'
'CONTRIBUT'
'CONTRACTUAL_'
'CONTA'
'CONSTITUTIONALITY_'
'CONNECTI'
'CONJECTUR'
'CONCLUSION_'
'CONCE'
'COMMEN'
'COB'
'CL_'
'CLEAR'
'CLASSI'
'CHRIST'
'CHIEF_'
'CHEERING_'
'CHARACTER'
'CBP_'
'CATE'
'CAN'
'Bz'
'Buy_'
'Butter'
'Burn'
'Bun'
'Browns'
'Brow'
'Bridge_'
'Bree'
'Brea'
'Brazil_'
'Branch_'
'Boy'
'Bloo'
'Blanche_'
'Blackb'
'Bipartisan'
'Billion_'
'Bernardino_'
'Beg'
'Bee_'
'Bec'
'Beast'
'Bavarian_'
'Bat'
'Basi'
'Banking_'
'Bank'
'Ball'
'BUS'
'BT_'
'BOARD_'
'BM'
'BG'
'BET'
'BES'
'BENEFICIARY_'
'BELOW_'
'BEA_'
'BEA'
'BB'
'BAS'
'BARR'
'Awlaki_'
'Awa'
'Authorization_'
'Authorit'
'Aut'
'Austr'
'Aurora_'
'Ato'
'Ashe_'
'Arne_'
'Arm'
'Ari'
'Archive_'
'Archi'
'Apple_'
'Appl'
'Antonio_'
'Anth'
'Answer'
'Announcement'
'Angel'
'Analytic'
'Amanpour_'
'Alr'
'Allen'
'Alis'
'Alexandr'
'Ale'
'Ak'
'Ah'
'Aghdam_'
'Advocate'
'Advi'
'Ado'
'Add'
'Activi'
'Abqaiq_'
'Abo'
'Abedin_'
'Abdul'
'Abd'
'AY_'
'AWAY_'
'ASE_'
'ARGUE'
'APPEA'
'ANTE'
'ANT'
'ANI'
'AND'
'ALS_'
'ALONE_'
'ALEXANDER_'
'AIG_'
'AGREE'
'AGE'
'AD_'
'ADVERTISEMENT_'
'ADO'
'ACTI'
'ACCU'
'ABROAD_'
'ABOUT_'
'ABLY_'
'A1'
'?”\10;\10;\10;\10;_'
'?^'
'?)'
'=\'
'< _'
';!'
':&'
': ``_'
': .'
'9j'
'9d'
'9S'
'934_'
'916_'
'915_'
'833'
'82_'
'7th_'
'779'
'760_'
'748_'
'747_'
'698_'
'670'
'645_'
'641_'
'640_'
'632_'
'5t'
'5r'
'5E'
'595'
'567'
'555'
'540'
'522_'
'504_'
'490_'
'472'
'4375_'
'420_'
'408_'
'407'
'403_'
'3rd_'
'398_'
'385'
'379'
'378_'
'377_'
'370_'
'367'
'364_'
'363_'
'362_'
'357_'
'334_'
'330'
'3275_'
'324_'
'3125_'
'310'
'30th_'
'306_'
'305'
'2h'
'2U'
'2G'
'296'
'295'
'292'
'288_'
'287'
'274_'
'2725_'
'268'
'265_'
'2625_'
'260_'
'256_'
'252'
'246'
'238'
'232'
'222'
'214_'
'211_'
'204'
'2030_'
'1O'
'1985_'
'1983_'
'1979_'
'1968_'
'1962_'
'1960_'
'1944'
'193_'
'1939_'
'1933_'
'1930s_'
'1925_'
'192'
'1825_'
'181_'
'179_'
'172'
'169_'
'163_'
'16131_'
'1575_'
'152'
'151_'
'143_'
'142_'
'13th_'
'139_'
'136_'
'1286_'
'126'
'125'
'12310_'
'12301_'
'1155968404_'
'109'
'104_'
'10211_'
'0c'
'0Z'
'0E'
'089'
'079'
'0675_'
'0634_'
'062'
'0527_'
'022_'
'015_'
'012'
'005_'
'003_'
'0029_'
'//'
'.“'
'.’”\10;\10;_'
'.’”'
'.’’ '
'.]'
'.\10;\10;‘_'
'.\10;\10;© _'
'.@'
'.; _'
'..\10;\10;_'
'.. '
'.-'
'."\10;\10;\10;\10;'
'." . _'
'. — _'
'. ...'
'. . '
'-\u'
'--\10;\10;\10;\10;'
'---'
'-&'
'- )_'
'+ _'
'*;'
'*,_'
').\10;\10;\10;\10;_'
').\10;\10;(_'
')) _'
') ... _'
') -'
'(—)-_'
'(@'
'##_'
'###_'
'"\10;\10;_'
'"[_'
'") _'
'")'
'"#'
'!;_'
'!" '
' • _'
' •'
' ‘‘_'
' »'
' ©'
' : $_'
' -- $_'
' -'
' % % % % % '
' %'
'骨'
'食'
'分'
'事'
'ン'
'マ'
'ス'
'イ'
'ん'
'そ'
'せ'
'あ'
'ô'
'ñ'
'ç'
'­'
'©'
'|'
'母'
'方'
'型'
'制'
'体'
'や'
'も'
'ま'
'さ'
'こ'
'け'
'–'
'ó'
'í'
'®'
'限'
'言'
'結'
'的'
'月'
'恥'
'後'
'合'
'ー'
'ヶ'
'ル'
'ナ'
'ト'
'エ'
'わ'
'ょ'
'め'
'み'
'つ'
'″'
'†'
'Ꭵ'
'Â'
'\'
'🇺'
'🇸'
'養'
'避'
'運'
'親'
'自'
'脂'
'肪'
'緩'
'盤'
'痩'
'然'
'激'
'栄'
'時'
'戻'
'急'
'思'
'当'
'度'
'好'
'動'
'前'
'乳'
'业'
'专'
'ダ'
'シ'
'よ'
'ゃ'
'ば'
'え'
'。'
'Ꮮ'
'ك'
'ة'
'ا'
'Ā'
'â'
'×'
'·'
''
'！'
'️'
'験'
'面'
'難'
'関'
'間'
'開'
'量'
'重'
'部'
'過'
'軽'
'足'
'赤'
'識'
'観'
'見'
'装'
'行'
'興'
'腹'
'给'
'締'
'経'
'程'
'硬'
'研'
'目'
'璜'
'燃'
'焼'
'点'
'注'
'法'
'治'
'水'
'気'
'歪'
'栏'
'柔'
'果'
'期'
'日'
'新'
'摂'
'接'
'护'
'所'
'意'
'性'
'徐'
'強'
'引'
'崩'
'密'
'安'
'娠'
'始'
'妊'
'女'
'多'
'増'
'境'
'因'
'呼'
'味'
'含'
'取'
'发'
'効'
'八'
'元'
'係'
'使'
'你'
'企'
'以'
'为'
'丸'
'中'
'与'
'一'
'レ'
'テ'
'チ'
'ケ'
'ア'
'む'
'ね'
'ち'
'だ'
'ご'
'き'
'々'
'、'
'€'
'‡'
'Ꮲ'
'Ꮯ'
'Ꮢ'
'Ꮙ'
'Ꮃ'
'Ꭼ'
'Ꭺ'
'ي'
'ن'
'م'
'ل'
'س'
'ر'
'د'
'ت'
'ب'
'ú'
'á'
'Ú'
'Á'
'»'
'£'
''
''
''
''
'}'
'{'
'™'
'•'
'à'
'À'
'±'
''
''
'
'
